{
  "version": "1.0",
  "truncation": null,
  "padding": null,
  "added_tokens": [
    {
      "id": 0,
      "content": "<s>",
      "single_word": false,
      "lstrip": false,
      "rstrip": false,
      "normalized": false,
      "special": true
    },
    {
      "id": 1,
      "content": "<pad>",
      "single_word": false,
      "lstrip": false,
      "rstrip": false,
      "normalized": false,
      "special": true
    },
    {
      "id": 2,
      "content": "</s>",
      "single_word": false,
      "lstrip": false,
      "rstrip": false,
      "normalized": false,
      "special": true
    },
    {
      "id": 3,
      "content": "<unk>",
      "single_word": false,
      "lstrip": false,
      "rstrip": false,
      "normalized": false,
      "special": true
    },
    {
      "id": 4,
      "content": "<mask>",
      "single_word": false,
      "lstrip": false,
      "rstrip": false,
      "normalized": false,
      "special": true
    }
  ],
  "normalizer": null,
  "pre_tokenizer": {
    "type": "ByteLevel",
    "add_prefix_space": false,
    "trim_offsets": true,
    "use_regex": true
  },
  "post_processor": {
    "type": "ByteLevel",
    "add_prefix_space": true,
    "trim_offsets": false,
    "use_regex": true
  },
  "decoder": {
    "type": "ByteLevel",
    "add_prefix_space": true,
    "trim_offsets": true,
    "use_regex": true
  },
  "model": {
    "type": "BPE",
    "dropout": null,
    "unk_token": null,
    "continuing_subword_prefix": null,
    "end_of_word_suffix": null,
    "fuse_unk": false,
    "vocab": {
      "<s>": 0,
      "<pad>": 1,
      "</s>": 2,
      "<unk>": 3,
      "<mask>": 4,
      "!": 5,
      "\"": 6,
      "#": 7,
      "$": 8,
      "%": 9,
      "&": 10,
      "'": 11,
      "(": 12,
      ")": 13,
      "*": 14,
      "+": 15,
      ",": 16,
      "-": 17,
      ".": 18,
      "/": 19,
      "0": 20,
      "1": 21,
      "2": 22,
      "3": 23,
      "4": 24,
      "5": 25,
      "6": 26,
      "7": 27,
      "8": 28,
      "9": 29,
      ":": 30,
      ";": 31,
      "<": 32,
      "=": 33,
      ">": 34,
      "?": 35,
      "@": 36,
      "A": 37,
      "B": 38,
      "C": 39,
      "D": 40,
      "E": 41,
      "F": 42,
      "G": 43,
      "H": 44,
      "I": 45,
      "J": 46,
      "K": 47,
      "L": 48,
      "M": 49,
      "N": 50,
      "O": 51,
      "P": 52,
      "Q": 53,
      "R": 54,
      "S": 55,
      "T": 56,
      "U": 57,
      "V": 58,
      "W": 59,
      "X": 60,
      "Y": 61,
      "Z": 62,
      "[": 63,
      "\\": 64,
      "]": 65,
      "^": 66,
      "_": 67,
      "`": 68,
      "a": 69,
      "b": 70,
      "c": 71,
      "d": 72,
      "e": 73,
      "f": 74,
      "g": 75,
      "h": 76,
      "i": 77,
      "j": 78,
      "k": 79,
      "l": 80,
      "m": 81,
      "n": 82,
      "o": 83,
      "p": 84,
      "q": 85,
      "r": 86,
      "s": 87,
      "t": 88,
      "u": 89,
      "v": 90,
      "w": 91,
      "x": 92,
      "y": 93,
      "z": 94,
      "{": 95,
      "|": 96,
      "}": 97,
      "~": 98,
      "¡": 99,
      "¢": 100,
      "£": 101,
      "¤": 102,
      "¥": 103,
      "¦": 104,
      "§": 105,
      "¨": 106,
      "©": 107,
      "ª": 108,
      "«": 109,
      "¬": 110,
      "®": 111,
      "¯": 112,
      "°": 113,
      "±": 114,
      "²": 115,
      "³": 116,
      "´": 117,
      "µ": 118,
      "¶": 119,
      "·": 120,
      "¸": 121,
      "¹": 122,
      "º": 123,
      "»": 124,
      "¼": 125,
      "½": 126,
      "¾": 127,
      "¿": 128,
      "À": 129,
      "Á": 130,
      "Â": 131,
      "Ã": 132,
      "Ä": 133,
      "Å": 134,
      "Æ": 135,
      "Ç": 136,
      "È": 137,
      "É": 138,
      "Ê": 139,
      "Ë": 140,
      "Ì": 141,
      "Í": 142,
      "Î": 143,
      "Ï": 144,
      "Ð": 145,
      "Ñ": 146,
      "Ò": 147,
      "Ó": 148,
      "Ô": 149,
      "Õ": 150,
      "Ö": 151,
      "×": 152,
      "Ø": 153,
      "Ù": 154,
      "Ú": 155,
      "Û": 156,
      "Ü": 157,
      "Ý": 158,
      "Þ": 159,
      "ß": 160,
      "à": 161,
      "á": 162,
      "â": 163,
      "ã": 164,
      "ä": 165,
      "å": 166,
      "æ": 167,
      "ç": 168,
      "è": 169,
      "é": 170,
      "ê": 171,
      "ë": 172,
      "ì": 173,
      "í": 174,
      "î": 175,
      "ï": 176,
      "ð": 177,
      "ñ": 178,
      "ò": 179,
      "ó": 180,
      "ô": 181,
      "õ": 182,
      "ö": 183,
      "÷": 184,
      "ø": 185,
      "ù": 186,
      "ú": 187,
      "û": 188,
      "ü": 189,
      "ý": 190,
      "þ": 191,
      "ÿ": 192,
      "Ā": 193,
      "ā": 194,
      "Ă": 195,
      "ă": 196,
      "Ą": 197,
      "ą": 198,
      "Ć": 199,
      "ć": 200,
      "Ĉ": 201,
      "ĉ": 202,
      "Ċ": 203,
      "ċ": 204,
      "Č": 205,
      "č": 206,
      "Ď": 207,
      "ď": 208,
      "Đ": 209,
      "đ": 210,
      "Ē": 211,
      "ē": 212,
      "Ĕ": 213,
      "ĕ": 214,
      "Ė": 215,
      "ė": 216,
      "Ę": 217,
      "ę": 218,
      "Ě": 219,
      "ě": 220,
      "Ĝ": 221,
      "ĝ": 222,
      "Ğ": 223,
      "ğ": 224,
      "Ġ": 225,
      "ġ": 226,
      "Ģ": 227,
      "ģ": 228,
      "Ĥ": 229,
      "ĥ": 230,
      "Ħ": 231,
      "ħ": 232,
      "Ĩ": 233,
      "ĩ": 234,
      "Ī": 235,
      "ī": 236,
      "Ĭ": 237,
      "ĭ": 238,
      "Į": 239,
      "į": 240,
      "İ": 241,
      "ı": 242,
      "Ĳ": 243,
      "ĳ": 244,
      "Ĵ": 245,
      "ĵ": 246,
      "Ķ": 247,
      "ķ": 248,
      "ĸ": 249,
      "Ĺ": 250,
      "ĺ": 251,
      "Ļ": 252,
      "ļ": 253,
      "Ľ": 254,
      "ľ": 255,
      "Ŀ": 256,
      "ŀ": 257,
      "Ł": 258,
      "ł": 259,
      "Ń": 260,
      "ĠĠ": 261,
      "ĠĠĠĠ": 262,
      "ĠĠĠ": 263,
      "ĠĠĠĠĠĠĠ": 264,
      "er": 265,
      "et": 266,
      "on": 267,
      "es": 268,
      "al": 269,
      "ar": 270,
      "ti": 271,
      ");": 272,
      "ĠĠĠĠĠĠĠĠĠĠĠ": 273,
      "in": 274,
      "en": 275,
      "ro": 276,
      "tion": 277,
      "sh": 278,
      "Ġ{": 279,
      "Ġt": 280,
      "all": 281,
      "Ġ}": 282,
      "at": 283,
      "shall": 284,
      "arshall": 285,
      "re": 286,
      "get": 287,
      "is": 288,
      "Ġn": 289,
      "Ġ=": 290,
      "qu": 291,
      "()": 292,
      "est": 293,
      "ol": 294,
      "ce": 295,
      "Ġp": 296,
      "quest": 297,
      "ent": 298,
      "li": 299,
      "IN": 300,
      "to": 301,
      "le": 302,
      "Ġ(": 303,
      "ur": 304,
      "ul": 305,
      "Re": 306,
      "marshall": 307,
      "an": 308,
      "Ġth": 309,
      "ĠĠĠĠĠĠĠĠ": 310,
      "ri": 311,
      "Ġe": 312,
      "Ġc": 313,
      "if": 314,
      "ew": 315,
      "de": 316,
      "as": 317,
      "roto": 318,
      "ing": 319,
      "Ex": 320,
      "col": 321,
      "Marshall": 322,
      "Marshaller": 323,
      "rotocol": 324,
      "ec": 325,
      "rotocolMarshaller": 326,
      "or": 327,
      "St": 328,
      "am": 329,
      "Ġr": 330,
      "(),": 331,
      "st": 332,
      "ate": 333,
      "In": 334,
      "ption": 335,
      "ub": 336,
      "Request": 337,
      "Ġif": 338,
      "urn": 339,
      "ut": 340,
      "lic": 341,
      "eturn": 342,
      "ĠprotocolMarshaller": 343,
      "Ġnew": 344,
      "ch": 345,
      "ull": 346,
      "ed": 347,
      "id": 348,
      "ublic": 349,
      "Ġreturn": 350,
      "ception": 351,
      "ation": 352,
      "Exception": 353,
      "request": 354,
      "ist": 355,
      "Ġnull": 356,
      "ING": 357,
      "it": 358,
      "Ġs": 359,
      "IND": 360,
      "INDING": 361,
      "BINDING": 362,
      "Ġto": 363,
      "ag": 364,
      "ring": 365,
      "pe": 366,
      "ĉĉ": 367,
      "Ġf": 368,
      "ĠS": 369,
      "ment": 370,
      "String": 371,
      "(\"": 372,
      "ad": 373,
      "ess": 374,
      "Ġb": 375,
      "ab": 376,
      "public": 377,
      "il": 378,
      "Ġ==": 379,
      "ĠĠĠĠĠĠĠĠĠĠĠĠĠĠĠ": 380,
      "ter": 381,
      "lient": 382,
      "..": 383,
      "Ġmarshall": 384,
      "Con": 385,
      "Client": 386,
      "row": 387,
      "Ġv": 388,
      "List": 389,
      "ype": 390,
      "ac": 391,
      "Ġthrow": 392,
      "Ġ\"": 393,
      "th": 394,
      "un": 395,
      "Ġrequest": 396,
      "ry": 397,
      "ode": 398,
      "ap": 399,
      "able": 400,
      "Res": 401,
      "lo": 402,
      "dk": 403,
      "up": 404,
      "ig": 405,
      "age": 406,
      "ON": 407,
      "se": 408,
      "čĊ": 409,
      "();": 410,
      "ass": 411,
      "ĠĠĠĠĠ": 412,
      "Ġin": 413,
      "ue": 414,
      "atch": 415,
      "Ġthis": 416,
      "te": 417,
      "ame": 418,
      "om": 419,
      "Ġ+": 420,
      "Type": 421,
      "ver": 422,
      "cri": 423,
      "ult": 424,
      "ic": 425,
      "el": 426,
      "Ġm": 427,
      "ay": 428,
      "ClientException": 429,
      "ĠSdk": 430,
      "ĠSdkClientException": 431,
      "oid": 432,
      "Ġvoid": 433,
      "//": 434,
      "Id": 435,
      "xt": 436,
      "ion": 437,
      "val": 438,
      "Ar": 439,
      "ĠP": 440,
      "Ġw": 441,
      "ers": 442,
      "Ġ//": 443,
      "im": 444,
      "ect": 445,
      "ument": 446,
      "stan": 447,
      "od": 448,
      "\");": 449,
      "our": 450,
      "add": 451,
      "Name": 452,
      "av": 453,
      "getM": 454,
      "ase": 455,
      "escri": 456,
      "...": 457,
      "ot": 458,
      "Un": 459,
      "Val": 460,
      "ain": 461,
      "ER": 462,
      "essage": 463,
      "til": 464,
      "Ġar": 465,
      "En": 466,
      "Ġd": 467,
      "ute": 468,
      "ction": 469,
      "Pro": 470,
      "um": 471,
      "Ch": 472,
      "ey": 473,
      "ĠJ": 474,
      "gument": 475,
      "TI": 476,
      "ef": 477,
      "ĠĠĠĠĠĠĠĠĠĠĠĠĠĠĠĠĠĠĠ": 478,
      "Ġst": 479,
      "em": 480,
      "reate": 481,
      "oc": 482,
      "aram": 483,
      "ty": 484,
      "Ġtry": 485,
      "Ġcatch": 486,
      "Result": 487,
      "ource": 488,
      "ME": 489,
      "bj": 490,
      "ava": 491,
      "));": 492,
      "tern": 493,
      "ild": 494,
      "To": 495,
      "Ġget": 496,
      "put": 497,
      "fig": 498,
      "valid": 499,
      "ĠD": 500,
      "end": 501,
      "ack": 502,
      "Ġfor": 503,
      "Ġset": 504,
      "ution": 505,
      "ĠString": 506,
      "Ġex": 507,
      "int": 508,
      "Ġo": 509,
      "java": 510,
      "Ġ!": 511,
      "set": 512,
      "us": 513,
      "stance": 514,
      "ile": 515,
      "Invalid": 516,
      "Ġthe": 517,
      "util": 518,
      "per": 519,
      "ith": 520,
      "Node": 521,
      "ĠC": 522,
      "verri": 523,
      "ĠJS": 524,
      "getMessage": 525,
      "RE": 526,
      "Overri": 527,
      "Ġpublic": 528,
      "Ġargument": 529,
      "Set": 530,
      "date": 531,
      "ext": 532,
      "Override": 533,
      "().": 534,
      "Ġ0": 535,
      "iz": 536,
      "ray": 537,
      "ternal": 538,
      "be": 539,
      "bject": 540,
      "ati": 541,
      "Exec": 542,
      "Ġpass": 543,
      "lass": 544,
      "eng": 545,
      "Config": 546,
      "Ġl": 547,
      "Unable": 548,
      ")\");": 549,
      "ĠJSON": 550,
      "ength": 551,
      "Ġpassed": 552,
      "(...": 553,
      "ĠProtocolMarshaller": 554,
      "(...)\");": 555,
      "Ġ:": 556,
      "tt": 557,
      "Value": 558,
      "Execution": 559,
      "ore": 560,
      "ata": 561,
      "ĠI": 562,
      "roup": 563,
      "ort": 564,
      "())": 565,
      "ĠĠĠĠĠĠĠĠĠĠĠĠĠĠĠĠ": 566,
      "Ġre": 567,
      "Param": 568,
      "rib": 569,
      "EN": 570,
      "escribe": 571,
      "art": 572,
      "Array": 573,
      "Key": 574,
      "vi": 575,
      "omp": 576,
      "Object": 577,
      "Ġint": 578,
      "new": 579,
      "tin": 580,
      ">(": 581,
      "TA": 582,
      "oun": 583,
      "Group": 584,
      "and": 585,
      "ve": 586,
      "))": 587,
      "());": 588,
      "Map": 589,
      "ff": 590,
      "Ġ!=": 591,
      "this": 592,
      "ete": 593,
      "ress": 594,
      "pt": 595,
      "length": 596,
      "ĠA": 597,
      "uration": 598,
      "ĉĉĉ": 599,
      "Ġh": 600,
      "\",": 601,
      "Ġel": 602,
      "po": 603,
      "tif": 604,
      "ĠB": 605,
      "ole": 606,
      "sRequest": 607,
      "ID": 608,
      "efore": 609,
      "Ġelse": 610,
      "pl": 611,
      "ĠT": 612,
      "TION": 613,
      "Ġcase": 614,
      "Met": 615,
      "tor": 616,
      "ecute": 617,
      "Att": 618,
      "vent": 619,
      "uild": 620,
      "ob": 621,
      "ize": 622,
      "Ġ-": 623,
      "Instance": 624,
      "inal": 625,
      "Ġbefore": 626,
      "ition": 627,
      "Ġexecute": 628,
      "dex": 629,
      "Paramet": 630,
      "ele": 631,
      "ge": 632,
      "AME": 633,
      "Ġwith": 634,
      "ser": 635,
      "ClientExecution": 636,
      "Lo": 637,
      "orm": 638,
      "con": 639,
      "ĠbeforeClientExecution": 640,
      "Ġcon": 641,
      "ail": 642,
      "Tim": 643,
      "gs": 644,
      "Ġch": 645,
      "aw": 646,
      "TE": 647,
      "Col": 648,
      "Ġjava": 649,
      "ĠĠĠĠĠĠĠĠĠ": 650,
      "Up": 651,
      "ace": 652,
      "AR": 653,
      "ir": 654,
      "Ġres": 655,
      "==": 656,
      "Cont": 657,
      "atic": 658,
      "ran": 659,
      "Ġde": 660,
      "ArrayList": 661,
      "LE": 662,
      "hod": 663,
      "Ġ<": 664,
      "Ġis": 665,
      "text": 666,
      "loc": 667,
      "port": 668,
      "Configuration": 669,
      "cess": 670,
      "Ġi": 671,
      "Ġ&": 672,
      "Get": 673,
      "ule": 674,
      "ach": 675,
      "Attrib": 676,
      "De": 677,
      "OR": 678,
      "zon": 679,
      "Time": 680,
      "fo": 681,
      "Ġ1": 682,
      "ure": 683,
      "Resource": 684,
      "ĠM": 685,
      "ign": 686,
      "vice": 687,
      "Ġa": 688,
      "oole": 689,
      "oolean": 690,
      "Ġval": 691,
      "create": 692,
      "ken": 693,
      "Def": 694,
      "Ac": 695,
      "Ġcom": 696,
      "ĠN": 697,
      "By": 698,
      "arget": 699,
      "ity": 700,
      "ount": 701,
      "Event": 702,
      "Internal": 703,
      "Ġstatic": 704,
      "ream": 705,
      "ow": 706,
      "ath": 707,
      "Job": 708,
      "co": 709,
      "ann": 710,
      "lection": 711,
      "update": 712,
      "ST": 713,
      "ork": 714,
      "As": 715,
      "res": 716,
      "rom": 717,
      "Ser": 718,
      "escription": 719,
      "azon": 720,
      "Class": 721,
      "Po": 722,
      "ary": 723,
      "uilder": 724,
      "enti": 725,
      "ire": 726,
      "ror": 727,
      "app": 728,
      "Det": 729,
      "ask": 730,
      "ind": 731,
      "Data": 732,
      "ĠF": 733,
      "aws": 734,
      "ct": 735,
      "Stat": 736,
      "SI": 737,
      "rans": 738,
      "olic": 739,
      "AL": 740,
      "eld": 741,
      "tory": 742,
      "ak": 743,
      "ĠL": 744,
      "gg": 745,
      "ator": 746,
      "ield": 747,
      "Sdk": 748,
      "Ġele": 749,
      "eck": 750,
      "Ġ&&": 751,
      "amazon": 752,
      "ust": 753,
      "ĠĠĠĠĠĠĠĠĠĠĠĠĠĠĠĠĠĠĠĠĠĠĠ": 754,
      "tific": 755,
      "amazonaws": 756,
      "Update": 757,
      "ine": 758,
      "getS": 759,
      "ord": 760,
      "cript": 761,
      "RO": 762,
      "ber": 763,
      "Ad": 764,
      "als": 765,
      "ersion": 766,
      "internal": 767,
      ").": 768,
      "SdkInternal": 769,
      "Comp": 770,
      "ance": 771,
      "Description": 772,
      "SdkInternalList": 773,
      "[]": 774,
      "TY": 775,
      "Ġpro": 776,
      "ree": 777,
      "UR": 778,
      "CE": 779,
      "Ap": 780,
      "pon": 781,
      "pro": 782,
      "Im": 783,
      "utes": 784,
      "ection": 785,
      "Token": 786,
      "unction": 787,
      "State": 788,
      "key": 789,
      "Info": 790,
      "Status": 791,
      "yp": 792,
      "Ġfinal": 793,
      "Collection": 794,
      "Ġ*": 795,
      "ax": 796,
      "riv": 797,
      "return": 798,
      "ilter": 799,
      "rue": 800,
      "ces": 801,
      "SE": 802,
      "lock": 803,
      "mo": 804,
      "Parameter": 805,
      "ainer": 806,
      "ron": 807,
      "Version": 808,
      "ill": 809,
      "DE": 810,
      "tim": 811,
      "Run": 812,
      "press": 813,
      "PE": 814,
      "Index": 815,
      "Ro": 816,
      "Polic": 817,
      "End": 818,
      "ues": 819,
      "ong": 820,
      "ames": 821,
      "lete": 822,
      "rivate": 823,
      "Stream": 824,
      "yte": 825,
      "low": 826,
      "Ġ.": 827,
      "elete": 828,
      "File": 829,
      "utput": 830,
      "ĠList": 831,
      "Tag": 832,
      "ix": 833,
      "umm": 834,
      "ery": 835,
      "ast": 836,
      "fer": 837,
      "ault": 838,
      "str": 839,
      "tem": 840,
      "igh": 841,
      "Ids": 842,
      "alse": 843,
      "ponse": 844,
      "Ġ|": 845,
      "Ġ>": 846,
      "Ġboolean": 847,
      "Context": 848,
      "plic": 849,
      "ip": 850,
      "ash": 851,
      "sion": 852,
      "arent": 853,
      "form": 854,
      "oci": 855,
      "list": 856,
      "ffer": 857,
      "inition": 858,
      "Ġtype": 859,
      "Of": 860,
      "Detail": 861,
      "of": 862,
      "Task": 863,
      "one": 864,
      "Summ": 865,
      "mp": 866,
      "point": 867,
      "Text": 868,
      "ations": 869,
      "urr": 870,
      "User": 871,
      "UN": 872,
      "ypes": 873,
      "ener": 874,
      "pression": 875,
      "red": 876,
      "RI": 877,
      "ATION": 878,
      "ackage": 879,
      "TER": 880,
      "Conn": 881,
      "lement": 882,
      "act": 883,
      "An": 884,
      "Builder": 885,
      "ex": 886,
      "Qu": 887,
      "Container": 888,
      "AN": 889,
      "Ġfalse": 890,
      "ties": 891,
      "Ġit": 892,
      "For": 893,
      "Settin": 894,
      "Child": 895,
      "annel": 896,
      "private": 897,
      "ori": 898,
      "Policy": 899,
      "ence": 900,
      "Ġcreate": 901,
      "ĠV": 902,
      "Ass": 903,
      "Er": 904,
      "Loc": 905,
      "Ġresult": 906,
      "Al": 907,
      "perty": 908,
      "Th": 909,
      "action": 910,
      "Add": 911,
      "getP": 912,
      "ari": 913,
      "Util": 914,
      "ader": 915,
      "Names": 916,
      "Ġvalue": 917,
      "append": 918,
      "Definition": 919,
      "Match": 920,
      "Sp": 921,
      "Method": 922,
      "vid": 923,
      "Sec": 924,
      "Attributes": 925,
      "Code": 926,
      "Ġg": 927,
      "ps": 928,
      "reak": 929,
      "Package": 930,
      "time": 931,
      "Ġ||": 932,
      "NAME": 933,
      "pos": 934,
      "Create": 935,
      "ĠObject": 936,
      "Ġlo": 937,
      "Error": 938,
      ">();": 939,
      "ange": 940,
      "LI": 941,
      "ifi": 942,
      "ĠE": 943,
      "RES": 944,
      "uth": 945,
      "cl": 946,
      "Delete": 947,
      "son": 948,
      "Describe": 949,
      "uffer": 950,
      "Ġ(!": 951,
      "GE": 952,
      "code": 953,
      "FI": 954,
      "Ġbe": 955,
      "Input": 956,
      "ear": 957,
      "ok": 958,
      "ard": 959,
      "Argument": 960,
      "Target": 961,
      "Ġtrue": 962,
      "op": 963,
      "ethod": 964,
      "Filter": 965,
      "Ġinstance": 966,
      "name": 967,
      "From": 968,
      "value": 969,
      "ATE": 970,
      "Ġbreak": 971,
      "ĠH": 972,
      "equ": 973,
      "CO": 974,
      "Types": 975,
      "yn": 976,
      "att": 977,
      "rap": 978,
      "ĠNode": 979,
      "Ġj": 980,
      "Response": 981,
      "chem": 982,
      "Settings": 983,
      "Arn": 984,
      "TYPE": 985,
      "urrent": 986,
      "Parameters": 987,
      "====": 988,
      "Path": 989,
      "move": 990,
      "Action": 991,
      "umber": 992,
      "gist": 993,
      "Or": 994,
      "map": 995,
      "type": 996,
      "Ġadd": 997,
      "Inter": 998,
      "Ġof": 999,
      "Fac": 1000,
      "Summary": 1001,
      "--": 1002,
      "Service": 1003,
      "Attribute": 1004,
      "Ġthrows": 1005,
      "adata": 1006,
      "tic": 1007,
      "Start": 1008,
      "Ġ?": 1009,
      "ĉĉĉĉ": 1010,
      "irst": 1011,
      "uc": 1012,
      "AT": 1013,
      "Field": 1014,
      "plication": 1015,
      "getC": 1016,
      "ific": 1017,
      "Option": 1018,
      "Ġnot": 1019,
      "teg": 1020,
      "ud": 1021,
      "ature": 1022,
      "class": 1023,
      "CH": 1024,
      "ym": 1025,
      "IS": 1026,
      "Tree": 1027,
      "ler": 1028,
      "Item": 1029,
      "Sub": 1030,
      "getD": 1031,
      "Ġ((": 1032,
      "ated": 1033,
      "Endpoint": 1034,
      "Ġ'": 1035,
      "++": 1036,
      "uble": 1037,
      "ug": 1038,
      "ouble": 1039,
      "out": 1040,
      "cope": 1041,
      "size": 1042,
      "ected": 1043,
      "Channel": 1044,
      "vis": 1045,
      "abel": 1046,
      "UL": 1047,
      "vider": 1048,
      "getL": 1049,
      "old": 1050,
      "Ġwh": 1051,
      "ertific": 1052,
      "odel": 1053,
      "omain": 1054,
      "Trans": 1055,
      "UT": 1056,
      "gger": 1057,
      "),": 1058,
      "are": 1059,
      "Pl": 1060,
      "Ġan": 1061,
      "Ġlist": 1062,
      "ound": 1063,
      "mpty": 1064,
      "\";": 1065,
      "gy": 1066,
      "equals": 1067,
      "uper": 1068,
      "entity": 1069,
      "Integ": 1070,
      "work": 1071,
      "stant": 1072,
      "Form": 1073,
      "Ġcheck": 1074,
      "UE": 1075,
      "chema": 1076,
      "Sh": 1077,
      "ric": 1078,
      "eway": 1079,
      "ateway": 1080,
      "Ġname": 1081,
      "ocument": 1082,
      "tom": 1083,
      "ache": 1084,
      "ded": 1085,
      "Output": 1086,
      "tes": 1087,
      "Ġnode": 1088,
      "ments": 1089,
      "ting": 1090,
      "He": 1091,
      "try": 1092,
      "Rule": 1093,
      "Ġwe": 1094,
      "Details": 1095,
      "eri": 1096,
      "ference": 1097,
      "onent": 1098,
      "rite": 1099,
      "toString": 1100,
      "lust": 1101,
      "Gateway": 1102,
      "Function": 1103,
      "ARN": 1104,
      "Size": 1105,
      "cal": 1106,
      "load": 1107,
      "__": 1108,
      "cont": 1109,
      "Null": 1110,
      "und": 1111,
      "EC": 1112,
      "getName": 1113,
      "ang": 1114,
      "leg": 1115,
      "describe": 1116,
      "os": 1117,
      "min": 1118,
      "Source": 1119,
      "SC": 1120,
      "Date": 1121,
      "LO": 1122,
      "Ġkey": 1123,
      "yst": 1124,
      "ystem": 1125,
      "Auth": 1126,
      "otific": 1127,
      "Str": 1128,
      "ĠDescribe": 1129,
      "00": 1130,
      "STA": 1131,
      "With": 1132,
      "ffset": 1133,
      "pr": 1134,
      "TO": 1135,
      "AC": 1136,
      "urity": 1137,
      "ĠW": 1138,
      "empl": 1139,
      "Ġparam": 1140,
      "IT": 1141,
      "ession": 1142,
      "Metadata": 1143,
      "file": 1144,
      "Message": 1145,
      "ten": 1146,
      "Expression": 1147,
      "Ġinstanceof": 1148,
      "Pre": 1149,
      "CON": 1150,
      "ly": 1151,
      "Query": 1152,
      "itmap": 1153,
      "EX": 1154,
      "plo": 1155,
      "getN": 1156,
      "((": 1157,
      "stances": 1158,
      "Associ": 1159,
      "read": 1160,
      "Count": 1161,
      "ploy": 1162,
      "count": 1163,
      "ertificate": 1164,
      "ates": 1165,
      "ost": 1166,
      "At": 1167,
      "Spec": 1168,
      "MEN": 1169,
      "Rec": 1170,
      "iti": 1171,
      "Ġ@": 1172,
      "otification": 1173,
      "Element": 1174,
      "Back": 1175,
      "ED": 1176,
      "illis": 1177,
      "dge": 1178,
      "legal": 1179,
      "Ġlong": 1180,
      "Integer": 1181,
      "Values": 1182,
      "iew": 1183,
      "case": 1184,
      "ond": 1185,
      "Format": 1186,
      "Empty": 1187,
      "Ġand": 1188,
      "Address": 1189,
      "luster": 1190,
      "Mod": 1191,
      "SION": 1192,
      "llegal": 1193,
      "Ġbyte": 1194,
      "otation": 1195,
      "Utils": 1196,
      "Groups": 1197,
      "Ġsh": 1198,
      "Ġcomp": 1199,
      "US": 1200,
      "ep": 1201,
      "ENT": 1202,
      "ight": 1203,
      "ra": 1204,
      "comp": 1205,
      "On": 1206,
      "UP": 1207,
      "ili": 1208,
      "Property": 1209,
      "Ġstate": 1210,
      "Work": 1211,
      "ArgumentException": 1212,
      "riter": 1213,
      "Entry": 1214,
      "cle": 1215,
      "Int": 1216,
      "TIME": 1217,
      "error": 1218,
      "start": 1219,
      "ĠĠĠĠĠĠĠĠĠĠĠĠĠĠĠĠĠĠĠĠĠĠĠĠĠĠĠ": 1220,
      "delete": 1221,
      "uct": 1222,
      "Ġen": 1223,
      "Ġdef": 1224,
      "shot": 1225,
      "MP": 1226,
      "omm": 1227,
      "Ġstart": 1228,
      "Log": 1229,
      "ĠĠĠĠĠĠĠĠĠĠĠĠĠ": 1230,
      "Ġupdate": 1231,
      "Factory": 1232,
      "Ġext": 1233,
      "SS": 1234,
      "Ġun": 1235,
      "nap": 1236,
      "Access": 1237,
      "vision": 1238,
      "Provider": 1239,
      "<?": 1240,
      "ink": 1241,
      "napshot": 1242,
      "raph": 1243,
      "ification": 1244,
      "ULT": 1245,
      "sResult": 1246,
      "ĠScript": 1247,
      "Block": 1248,
      "Instances": 1249,
      "user": 1250,
      "sub": 1251,
      "psim": 1252,
      "Script": 1253,
      "Ġon": 1254,
      "ttp": 1255,
      "andler": 1256,
      "psimPackage": 1257,
      "erv": 1258,
      "esRequest": 1259,
      "ĠIllegal": 1260,
      "ĠĠĠĠĠĠĠĠĠĠĠĠĠĠĠĠĠĠĠĠĠĠĠĠĠĠĠĠĠĠĠĠ": 1261,
      "Templ": 1262,
      "ĠDE": 1263,
      "Connection": 1264,
      "use": 1265,
      "\")": 1266,
      "ched": 1267,
      "getF": 1268,
      "Ġdescribe": 1269,
      "ployment": 1270,
      "Oper": 1271,
      "iter": 1272,
      "MENT": 1273,
      "PAR": 1274,
      "Vp": 1275,
      "MA": 1276,
      "its": 1277,
      "upport": 1278,
      "ble": 1279,
      "etwork": 1280,
      "ember": 1281,
      "next": 1282,
      "scri": 1283,
      "VER": 1284,
      "];": 1285,
      "rig": 1286,
      "odes": 1287,
      "OP": 1288,
      "cept": 1289,
      "Ġdelete": 1290,
      "Ġnext": 1291,
      "pace": 1292,
      "eer": 1293,
      "isi": 1294,
      "Valid": 1295,
      "sw": 1296,
      "Dist": 1297,
      "Pool": 1298,
      "ark": 1299,
      "query": 1300,
      "LA": 1301,
      "back": 1302,
      "Tags": 1303,
      "the": 1304,
      "FA": 1305,
      "ĠGet": 1306,
      "BLE": 1307,
      "ymb": 1308,
      "ymbol": 1309,
      "null": 1310,
      "ĠBpsimPackage": 1311,
      "bo": 1312,
      "perties": 1313,
      "Number": 1314,
      "mis": 1315,
      "Domain": 1316,
      "AMETER": 1317,
      "very": 1318,
      "ms": 1319,
      "View": 1320,
      "irec": 1321,
      "ĠIS": 1322,
      "Cluster": 1323,
      "with": 1324,
      "Not": 1325,
      "Component": 1326,
      "Ġ2": 1327,
      "ify": 1328,
      "Ġmethod": 1329,
      "eature": 1330,
      "Ġ%": 1331,
      "Enc": 1332,
      "Enti": 1333,
      "Server": 1334,
      "Ġx": 1335,
      "top": 1336,
      "Stack": 1337,
      "own": 1338,
      "isEmpty": 1339,
      "Image": 1340,
      "lation": 1341,
      "ĠG": 1342,
      "place": 1343,
      "eg": 1344,
      "Bytes": 1345,
      "ume": 1346,
      "OException": 1347,
      "bug": 1348,
      "ources": 1349,
      "fix": 1350,
      "dition": 1351,
      "DI": 1352,
      "Runtime": 1353,
      "Ġ/": 1354,
      "estin": 1355,
      "Metric": 1356,
      "line": 1357,
      "KEN": 1358,
      "Identity": 1359,
      "opy": 1360,
      "Dis": 1361,
      "Ġfrom": 1362,
      "chedule": 1363,
      "Per": 1364,
      "DB": 1365,
      "ere": 1366,
      "attrib": 1367,
      "Ġindex": 1368,
      "Snapshot": 1369,
      "Ġend": 1370,
      "Security": 1371,
      "utable": 1372,
      "Record": 1373,
      "PARAMETER": 1374,
      "gister": 1375,
      "Ġas": 1376,
      "ains": 1377,
      "Man": 1378,
      "Check": 1379,
      "ia": 1380,
      "ings": 1381,
      "ĠRe": 1382,
      "Tr": 1383,
      "Dat": 1384,
      "Ġthat": 1385,
      "Dec": 1386,
      "KE": 1387,
      "Device": 1388,
      "Certificate": 1389,
      "Table": 1390,
      "ĠTh": 1391,
      "IL": 1392,
      "tiv": 1393,
      "Par": 1394,
      "index": 1395,
      "Byte": 1396,
      "idth": 1397,
      "Chain": 1398,
      "leet": 1399,
      "has": 1400,
      "ribution": 1401,
      "ket": 1402,
      "ĠArrayList": 1403,
      "Pos": 1404,
      "Application": 1405,
      "indow": 1406,
      "Ip": 1407,
      "associ": 1408,
      "All": 1409,
      "Base": 1410,
      "BU": 1411,
      "Ġsource": 1412,
      "OUR": 1413,
      "itch": 1414,
      "tile": 1415,
      "TOKEN": 1416,
      "Session": 1417,
      "Ġk": 1418,
      "ĠMap": 1419,
      "irectory": 1420,
      "ĠR": 1421,
      "iled": 1422,
      "VAL": 1423,
      "Point": 1424,
      "We": 1425,
      "Ġpar": 1426,
      "Model": 1427,
      "param": 1428,
      "ustom": 1429,
      "face": 1430,
      "Ġmax": 1431,
      "Sign": 1432,
      "Ġid": 1433,
      "ual": 1434,
      "eter": 1435,
      "par": 1436,
      "Ġsuper": 1437,
      "ags": 1438,
      "arn": 1439,
      "ĠRE": 1440,
      "node": 1441,
      "ĠĊ": 1442,
      "ailed": 1443,
      "Ġall": 1444,
      "Distribution": 1445,
      "Local": 1446,
      "write": 1447,
      "Handler": 1448,
      "Ġtarget": 1449,
      "Us": 1450,
      "Color": 1451,
      "Content": 1452,
      "ĠNAME": 1453,
      "Buffer": 1454,
      "Ġmin": 1455,
      "ariable": 1456,
      "ifier": 1457,
      "Association": 1458,
      "VI": 1459,
      "ends": 1460,
      "posal": 1461,
      "getValue": 1462,
      "Unit": 1463,
      "Cache": 1464,
      "Zone": 1465,
      "vel": 1466,
      "Ġparent": 1467,
      "Ġinput": 1468,
      "========": 1469,
      "ycle": 1470,
      "Ann": 1471,
      "Role": 1472,
      "Ġpre": 1473,
      "format": 1474,
      "ĠX": 1475,
      "def": 1476,
      "Millis": 1477,
      "ility": 1478,
      "DO": 1479,
      "upported": 1480,
      "mission": 1481,
      "ative": 1482,
      "Account": 1483,
      "eriod": 1484,
      "getNext": 1485,
      "Hash": 1486,
      "Ġim": 1487,
      "Ġms": 1488,
      "Ġor": 1489,
      "Ġcont": 1490,
      "ized": 1491,
      "ayer": 1492,
      "Template": 1493,
      "**": 1494,
      "viron": 1495,
      "Default": 1496,
      "estination": 1497,
      "final": 1498,
      "ransaction": 1499,
      "Matcher": 1500,
      "ape": 1501,
      "instance": 1502,
      "Enable": 1503,
      "And": 1504,
      "earch": 1505,
      "ĉĉĠĠ": 1506,
      "Route": 1507,
      "OT": 1508,
      "ple": 1509,
      "quire": 1510,
      "ĠDate": 1511,
      "SET": 1512,
      "url": 1513,
      "redenti": 1514,
      "EXT": 1515,
      "FF": 1516,
      "Label": 1517,
      "uto": 1518,
      "getRe": 1519,
      "Ġwhile": 1520,
      "Ġro": 1521,
      "entry": 1522,
      "caling": 1523,
      "++)": 1524,
      "olo": 1525,
      "Deployment": 1526,
      "Authori": 1527,
      "ave": 1528,
      "OL": 1529,
      "Ġcurrent": 1530,
      "Options": 1531,
      "Ġmod": 1532,
      "ĠSTA": 1533,
      "lob": 1534,
      "uld": 1535,
      "ecycle": 1536,
      ">>": 1537,
      "Profile": 1538,
      "ĠCreate": 1539,
      "ainten": 1540,
      "aintenance": 1541,
      "Document": 1542,
      "ould": 1543,
      "enc": 1544,
      "Inv": 1545,
      "Char": 1546,
      "les": 1547,
      "Ur": 1548,
      "for": 1549,
      "Ġclass": 1550,
      "ategy": 1551,
      "tifi": 1552,
      "Ġby": 1553,
      "Chron": 1554,
      "Location": 1555,
      "Entity": 1556,
      "ology": 1557,
      "tected": 1558,
      "Window": 1559,
      "etry": 1560,
      "OURCE": 1561,
      "TID": 1562,
      "Batch": 1563,
      "RIBU": 1564,
      "ally": 1565,
      "Ġ>=": 1566,
      "Fr": 1567,
      "Ġdefault": 1568,
      "TH": 1569,
      "entifi": 1570,
      "Root": 1571,
      "Bitmap": 1572,
      "gion": 1573,
      "Constr": 1574,
      "Ġ->": 1575,
      "ject": 1576,
      "ptor": 1577,
      "Ġac": 1578,
      "string": 1579,
      "KEY": 1580,
      "AX": 1581,
      "\"))": 1582,
      "getMax": 1583,
      "URL": 1584,
      "ĠRequest": 1585,
      "Url": 1586,
      "PRO": 1587,
      "ĠIllegalArgumentException": 1588,
      "DA": 1589,
      "Sele": 1590,
      "ĠIN": 1591,
      "Ġdouble": 1592,
      "PO": 1593,
      "onth": 1594,
      "Vpc": 1595,
      "Ġsize": 1596,
      "Ġfield": 1597,
      "Process": 1598,
      "ĠIOException": 1599,
      "vironment": 1600,
      "true": 1601,
      "ages": 1602,
      "Ġbuilder": 1603,
      "ipe": 1604,
      "ther": 1605,
      "Subscri": 1606,
      "TR": 1607,
      "Ġdo": 1608,
      "Results": 1609,
      "ping": 1610,
      "Range": 1611,
      "Properties": 1612,
      "Flow": 1613,
      "RIP": 1614,
      "let": 1615,
      "resource": 1616,
      "No": 1617,
      "duct": 1618,
      "attern": 1619,
      "Reference": 1620,
      "Ġcontext": 1621,
      "ĠTA": 1622,
      "ified": 1623,
      "Strategy": 1624,
      "arch": 1625,
      "ync": 1626,
      "lobal": 1627,
      "sing": 1628,
      "ĠEN": 1629,
      "Ġcall": 1630,
      "CATION": 1631,
      "tual": 1632,
      "log": 1633,
      "ocation": 1634,
      "Attach": 1635,
      "Backup": 1636,
      "rol": 1637,
      "iles": 1638,
      "Manag": 1639,
      "AGE": 1640,
      "Le": 1641,
      "ules": 1642,
      "ined": 1643,
      "char": 1644,
      "Listener": 1645,
      "Ġmatch": 1646,
      "'t": 1647,
      "rim": 1648,
      "Ġsub": 1649,
      "Ġpos": 1650,
      "tifact": 1651,
      "ML": 1652,
      "unch": 1653,
      "----": 1654,
      "Chronology": 1655,
      "Visi": 1656,
      "remove": 1657,
      "DER": 1658,
      "ĠO": 1659,
      "Scope": 1660,
      "ies": 1661,
      "astic": 1662,
      "target": 1663,
      "Load": 1664,
      "Iter": 1665,
      "Ġlogger": 1666,
      "mutable": 1667,
      "getB": 1668,
      "Api": 1669,
      "SCRIP": 1670,
      "Operation": 1671,
      "Fleet": 1672,
      "method": 1673,
      "ĠClass": 1674,
      "ĠexecuteGet": 1675,
      "contains": 1676,
      "Call": 1677,
      "Ġy": 1678,
      "Annotation": 1679,
      "aring": 1680,
      "Ġsp": 1681,
      "abase": 1682,
      "ren": 1683,
      "ĠMAX": 1684,
      "JobRequest": 1685,
      "Resources": 1686,
      "Keys": 1687,
      "Vol": 1688,
      "Enum": 1689,
      "Var": 1690,
      "raw": 1691,
      "Permission": 1692,
      "eatureID": 1693,
      "ts": 1694,
      "GroupRequest": 1695,
      "App": 1696,
      "Ġal": 1697,
      "Ġchild": 1698,
      "build": 1699,
      "Schema": 1700,
      "Ġout": 1701,
      "Member": 1702,
      "ĠĠĠĠĠĠĠĠĠĠĠĠ": 1703,
      "current": 1704,
      "print": 1705,
      "eed": 1706,
      "gress": 1707,
      "Ġle": 1708,
      "()));": 1709,
      "Ġextends": 1710,
      "tivity": 1711,
      "EL": 1712,
      "ret": 1713,
      "input": 1714,
      "econd": 1715,
      "erved": 1716,
      "flow": 1717,
      "match": 1718,
      "Ġret": 1719,
      "Low": 1720,
      "Gener": 1721,
      "ĠByte": 1722,
      "Ġvalues": 1723,
      "Resol": 1724,
      "Json": 1725,
      "inter": 1726,
      "Cap": 1727,
      "long": 1728,
      "Ġhas": 1729,
      "Comm": 1730,
      "DATE": 1731,
      "Edge": 1732,
      "Is": 1733,
      "ries": 1734,
      "Ver": 1735,
      "clo": 1736,
      "result": 1737,
      "Plan": 1738,
      "Mode": 1739,
      "ĠToken": 1740,
      "Ġform": 1741,
      "ĠCol": 1742,
      "Level": 1743,
      "tive": 1744,
      "liance": 1745,
      "Ġare": 1746,
      "Prefix": 1747,
      "byte": 1748,
      "com": 1749,
      "Ġbuffer": 1750,
      "Ġdata": 1751,
      "Params": 1752,
      "associate": 1753,
      "Offset": 1754,
      "gn": 1755,
      "ht": 1756,
      "word": 1757,
      "der": 1758,
      "Ġquery": 1759,
      "anc": 1760,
      "tr": 1761,
      "Ġargs": 1762,
      "Network": 1763,
      "unk": 1764,
      "Width": 1765,
      "reg": 1766,
      "Identifi": 1767,
      "Artifact": 1768,
      "ĠIm": 1769,
      "Impl": 1770,
      "Ali": 1771,
      "pre": 1772,
      "Graph": 1773,
      "ook": 1774,
      "getResource": 1775,
      "Change": 1776,
      "itial": 1777,
      "local": 1778,
      "Link": 1779,
      "UM": 1780,
      "ctor": 1781,
      "air": 1782,
      "ĠType": 1783,
      "Ġscope": 1784,
      "<?>": 1785,
      "Destination": 1786,
      "SH": 1787,
      "ml": 1788,
      "Second": 1789,
      "ulti": 1790,
      "Ġfunction": 1791,
      "ĠNEXT": 1792,
      "Schedule": 1793,
      "Ġsw": 1794,
      "Enabled": 1795,
      "Symbol": 1796,
      "ft": 1797,
      "ration": 1798,
      "Ġmessage": 1799,
      "irect": 1800,
      "ake": 1801,
      "attribute": 1802,
      "aces": 1803,
      "annot": 1804,
      "Copy": 1805,
      "Ġfirst": 1806,
      "FIG": 1807,
      "job": 1808,
      "ive": 1809,
      "Ġobject": 1810,
      "Interface": 1811,
      "Maintenance": 1812,
      "ant": 1813,
      "sign": 1814,
      "Product": 1815,
      "ization": 1816,
      "ABLE": 1817,
      "ĠPro": 1818,
      "Ġlength": 1819,
      "VALUE": 1820,
      "parent": 1821,
      "uf": 1822,
      "PARAMETERS": 1823,
      "Scaling": 1824,
      "io": 1825,
      "STAN": 1826,
      "ĠSystem": 1827,
      "Share": 1828,
      "Remove": 1829,
      "Ġold": 1830,
      "Ġcan": 1831,
      "Manager": 1832,
      "ĠRES": 1833,
      "Ġerror": 1834,
      "ability": 1835,
      "order": 1836,
      "ĠInteger": 1837,
      "elper": 1838,
      "Length": 1839,
      "System": 1840,
      "ryRun": 1841,
      "Ġconfig": 1842,
      "FAULT": 1843,
      "iler": 1844,
      "Ġfile": 1845,
      "Port": 1846,
      "getType": 1847,
      "Bal": 1848,
      "Ġ_": 1849,
      "search": 1850,
      "TUS": 1851,
      "ice": 1852,
      "ĠSet": 1853,
      "ply": 1854,
      "ancel": 1855,
      "ĠDelete": 1856,
      "Arns": 1857,
      "Transaction": 1858,
      "redentials": 1859,
      "Connect": 1860,
      "VERSION": 1861,
      "sp": 1862,
      "AM": 1863,
      "Ġ)": 1864,
      "getNextToken": 1865,
      "ĠNEXTTOKEN": 1866,
      "emp": 1867,
      "Thing": 1868,
      "InputStream": 1869,
      "aries": 1870,
      "Case": 1871,
      "DryRun": 1872,
      "ices": 1873,
      "Mapping": 1874,
      "ek": 1875,
      "net": 1876,
      "uctor": 1877,
      "ĠDateTime": 1878,
      "Year": 1879,
      "ĠexecuteDescribe": 1880,
      "Roaring": 1881,
      "aunch": 1882,
      "Ġli": 1883,
      "Ġoutput": 1884,
      "irstChild": 1885,
      "Ġstring": 1886,
      "Peer": 1887,
      "Ġvalid": 1888,
      "cop": 1889,
      "Balanc": 1890,
      "Database": 1891,
      "Exten": 1892,
      "ody": 1893,
      "Ġlog": 1894,
      "Ġblock": 1895,
      "Ġsign": 1896,
      "af": 1897,
      "ls": 1898,
      "Read": 1899,
      "ector": 1900,
      "Subscription": 1901,
      "Notification": 1902,
      "ĠInvalid": 1903,
      "tore": 1904,
      "Ġsb": 1905,
      "()))": 1906,
      "riteria": 1907,
      "Ġ3": 1908,
      "cip": 1909,
      "oin": 1910,
      "Proposal": 1911,
      "MO": 1912,
      "Ġpath": 1913,
      "DateTime": 1914,
      "=\"": 1915,
      "Obj": 1916,
      "Import": 1917,
      "bers": 1918,
      "ending": 1919,
      "Ġresource": 1920,
      "CU": 1921,
      "Condition": 1922,
      "ryption": 1923,
      "QUE": 1924,
      "ause": 1925,
      "ql": 1926,
      "yle": 1927,
      "tinue": 1928,
      "EClass": 1929,
      "vail": 1930,
      "getT": 1931,
      "torage": 1932,
      "Top": 1933,
      "Ġobj": 1934,
      "Deli": 1935,
      "getKey": 1936,
      "ipeline": 1937,
      "AD": 1938,
      "ide": 1939,
      "stream": 1940,
      "config": 1941,
      "Avail": 1942,
      "')": 1943,
      "Pr": 1944,
      "mit": 1945,
      "Versions": 1946,
      "Ġno": 1947,
      "acity": 1948,
      "Provision": 1949,
      "Ġswitch": 1950,
      "ĠexecuteList": 1951,
      "Ġup": 1952,
      "ĠUpdate": 1953,
      "ĠMethod": 1954,
      "ared": 1955,
      "Out": 1956,
      "ĠCON": 1957,
      "quired": 1958,
      "ables": 1959,
      "Environment": 1960,
      "Ġass": 1961,
      "Ġhave": 1962,
      "ns": 1963,
      "ĠJson": 1964,
      "Configurations": 1965,
      "JS": 1966,
      "data": 1967,
      "Ġoffset": 1968,
      "AP": 1969,
      "ude": 1970,
      "Order": 1971,
      "El": 1972,
      "Op": 1973,
      "ifecycle": 1974,
      "ays": 1975,
      "gistry": 1976,
      "ory": 1977,
      "Ġinter": 1978,
      "Ġprocess": 1979,
      "ension": 1980,
      "Que": 1981,
      "Ġuser": 1982,
      "process": 1983,
      "redic": 1984,
      "angu": 1985,
      "charAt": 1986,
      "Ġ<=": 1987,
      "irtual": 1988,
      "ynam": 1989,
      "ĠScriptable": 1990,
      "Ġmsgs": 1991,
      "Volume": 1992,
      "ROUP": 1993,
      "Rest": 1994,
      "inding": 1995,
      "RESULT": 1996,
      ".\");": 1997,
      "Ġser": 1998,
      "eta": 1999,
      "Ġstr": 2000,
      "ĠexecuteDelete": 2001,
      "Nullable": 2002,
      "Put": 2003,
      "Ġtime": 2004,
      "ont": 2005,
      "ial": 2006,
      "Ġread": 2007,
      "Loader": 2008,
      "Ġ4": 2009,
      "amp": 2010,
      "ĠIn": 2011,
      "ingJob": 2012,
      "Filters": 2013,
      "ĉĉĉĉĉ": 2014,
      "Ġmust": 2015,
      "CUMENT": 2016,
      "PER": 2017,
      "incip": 2018,
      "ems": 2019,
      "round": 2020,
      "ugg": 2021,
      "Ġ});": 2022,
      "Specification": 2023,
      "Validation": 2024,
      "':": 2025,
      "Pair": 2026,
      "\\\"": 2027,
      "oding": 2028,
      "Ġexpression": 2029,
      "ucket": 2030,
      "Del": 2031,
      "Ġhe": 2032,
      "Ġ+=": 2033,
      "udit": 2034,
      "Items": 2035,
      "getLast": 2036,
      "Balancer": 2037,
      "high": 2038,
      "NO": 2039,
      "Nodes": 2040,
      "Part": 2041,
      "Warn": 2042,
      "Authoriz": 2043,
      "tag": 2044,
      "Concept": 2045,
      "Iterator": 2046,
      "STANCE": 2047,
      "dis": 2048,
      "mark": 2049,
      "Ph": 2050,
      "ĠStringBuilder": 2051,
      "Ġlast": 2052,
      "covery": 2053,
      "esc": 2054,
      "inally": 2055,
      "conn": 2056,
      "Detection": 2057,
      "ner": 2058,
      "ved": 2059,
      "SCRIPTION": 2060,
      "USER": 2061,
      "lational": 2062,
      "filter": 2063,
      "Export": 2064,
      "protected": 2065,
      "Summaries": 2066,
      "hs": 2067,
      "istory": 2068,
      "INT": 2069,
      "Events": 2070,
      "utor": 2071,
      "Ġfind": 2072,
      "Constant": 2073,
      "ĠBoolean": 2074,
      "STR": 2075,
      "Custom": 2076,
      "oice": 2077,
      "imit": 2078,
      "InstanceRequest": 2079,
      "undle": 2080,
      "ĠCollection": 2081,
      "substring": 2082,
      "valu": 2083,
      "Ġjson": 2084,
      "getFirstChild": 2085,
      "Resolver": 2086,
      "Em": 2087,
      "context": 2088,
      "Search": 2089,
      "Ġpl": 2090,
      "Ġproperty": 2091,
      "Alias": 2092,
      "TOR": 2093,
      "Ġcode": 2094,
      "olicy": 2095,
      "ĠImmutable": 2096,
      "init": 2097,
      "ender": 2098,
      "Assign": 2099,
      "Usage": 2100,
      "ĠexecuteCreate": 2101,
      "DATA": 2102,
      "anguage": 2103,
      "CTION": 2104,
      "getId": 2105,
      "debug": 2106,
      "Ġchar": 2107,
      "Org": 2108,
      "Ġus": 2109,
      "ĠFile": 2110,
      "ROOT": 2111,
      "CODE": 2112,
      "right": 2113,
      "Failed": 2114,
      "gori": 2115,
      "eters": 2116,
      "ERR": 2117,
      "umer": 2118,
      "Compliance": 2119,
      "ency": 2120,
      "ĠĠĠĠĠĠĠĠĠĠĠĠĠĠĠĠĠĠĠĠĠĠĠĠĠĠĠĠĠĠĠ": 2121,
      "server": 2122,
      "URATION": 2123,
      "getA": 2124,
      "Ġdis": 2125,
      "ĠIf": 2126,
      "Ġmodule": 2127,
      "ITY": 2128,
      "'s": 2129,
      "Patch": 2130,
      "mod": 2131,
      "source": 2132,
      "PolicyRequest": 2133,
      "LowContainer": 2134,
      "Com": 2135,
      "ges": 2136,
      "Ġschema": 2137,
      "Prop": 2138,
      "lationalDatabase": 2139,
      "Min": 2140,
      "Ġentry": 2141,
      "rapper": 2142,
      "CONFIG": 2143,
      "Ġformat": 2144,
      "chron": 2145,
      "values": 2146,
      "ĠHash": 2147,
      "Elastic": 2148,
      "ship": 2149,
      "()).": 2150,
      "Directory": 2151,
      "Parent": 2152,
      "pected": 2153,
      "info": 2154,
      "oll": 2155,
      "Ġ*/": 2156,
      "VE": 2157,
      "batch": 2158,
      "event": 2159,
      "Ref": 2160,
      "verter": 2161,
      "imple": 2162,
      "Capacity": 2163,
      "ĠInvalidArgumentException": 2164,
      "('": 2165,
      "Bas": 2166,
      "Ġurl": 2167,
      "OB": 2168,
      "Ġbut": 2169,
      "ĠCO": 2170,
      "uccess": 2171,
      "Invocation": 2172,
      "RIBUTION": 2173,
      "RESULTS": 2174,
      "ES": 2175,
      "Ġat": 2176,
      "andle": 2177,
      "posi": 2178,
      "getMaxResults": 2179,
      "RoaringBitmap": 2180,
      "from": 2181,
      "Ġso": 2182,
      "ENAME": 2183,
      "ggreg": 2184,
      "DIST": 2185,
      "Decl": 2186,
      "Doc": 2187,
      "Host": 2188,
      "Vault": 2189,
      "ert": 2190,
      "Ġ{}": 2191,
      "getInstance": 2192,
      "Upload": 2193,
      "getParent": 2194,
      "DistributionType": 2195,
      "Public": 2196,
      "getStatus": 2197,
      "<>();": 2198,
      "Pattern": 2199,
      "Ġtag": 2200,
      "Ġrange": 2201,
      "uture": 2202,
      "ite": 2203,
      "Encryption": 2204,
      "ĠMAXRESULTS": 2205,
      "Ġother": 2206,
      "TT": 2207,
      "az": 2208,
      "featureID": 2209,
      "attr": 2210,
      "Chaincode": 2211,
      "Ġevent": 2212,
      "Ġclient": 2213,
      "verse": 2214,
      "ardinal": 2215,
      "Ġput": 2216,
      "Region": 2217,
      "ecurity": 2218,
      "EventAttributes": 2219,
      "Line": 2220,
      "Last": 2221,
      "output": 2222,
      "Extension": 2223,
      "Fl": 2224,
      "If": 2225,
      "Ġhash": 2226,
      "COUN": 2227,
      "DISTRIBUTION": 2228,
      "my": 2229,
      "og": 2230,
      "tition": 2231,
      "rok": 2232,
      "atis": 2233,
      "Children": 2234,
      "tics": 2235,
      "Ġtree": 2236,
      "Ġarg": 2237,
      "RT": 2238,
      "ss": 2239,
      "throw": 2240,
      "Workflow": 2241,
      "group": 2242,
      "ĠĠĠĠĠĠĠĠĠĠĠĠĠĠĠĠĠ": 2243,
      "ĠLO": 2244,
      "etric": 2245,
      "tit": 2246,
      "Queue": 2247,
      "Pay": 2248,
      "Virtual": 2249,
      "we": 2250,
      "vert": 2251,
      "GROUP": 2252,
      "Ġtext": 2253,
      "ĠID": 2254,
      "StateException": 2255,
      "clude": 2256,
      "NotNull": 2257,
      "ract": 2258,
      "Ġfinally": 2259,
      "older": 2260,
      "Ġparse": 2261,
      "Aggreg": 2262,
      "Clo": 2263,
      "ermin": 2264,
      "Header": 2265,
      "Constrain": 2266,
      "Email": 2267,
      "Ret": 2268,
      "Ġop": 2269,
      "Debug": 2270,
      "resh": 2271,
      "Reader": 2272,
      "Replication": 2273,
      "annotation": 2274,
      "ATCH": 2275,
      "egment": 2276,
      "Rules": 2277,
      "dates": 2278,
      "RED": 2279,
      "space": 2280,
      "lot": 2281,
      "Lifecycle": 2282,
      "eers": 2283,
      "ground": 2284,
      "MatchSet": 2285,
      "Period": 2286,
      "Tri": 2287,
      "base": 2288,
      "vok": 2289,
      "Step": 2290,
      "Ġarray": 2291,
      "Addresses": 2292,
      "replace": 2293,
      "Ġedge": 2294,
      "dges": 2295,
      "ous": 2296,
      "uction": 2297,
      "Ġinfo": 2298,
      "ixed": 2299,
      "Identifier": 2300,
      "Global": 2301,
      "UB": 2302,
      "Variable": 2303,
      "getString": 2304,
      "check": 2305,
      "Ġdate": 2306,
      "Ġone": 2307,
      "Ġscript": 2308,
      "avig": 2309,
      "Ġstack": 2310,
      "copy": 2311,
      "Bound": 2312,
      "FER": 2313,
      "ng": 2314,
      "vices": 2315,
      "Only": 2316,
      "parse": 2317,
      "ĠAP": 2318,
      "Writer": 2319,
      "Ġpeer": 2320,
      "Qual": 2321,
      "Subnet": 2322,
      "IO": 2323,
      "Chart": 2324,
      "ENTI": 2325,
      "Logger": 2326,
      "DOCUMENT": 2327,
      "QU": 2328,
      "alth": 2329,
      "AY": 2330,
      "Sup": 2331,
      "her": 2332,
      "static": 2333,
      "Args": 2334,
      "Ġ<<": 2335,
      "swer": 2336,
      "Position": 2337,
      "fter": 2338,
      "tree": 2339,
      "endar": 2340,
      "izer": 2341,
      "Ġbytes": 2342,
      "ORM": 2343,
      "Policies": 2344,
      "ĠRESOURCE": 2345,
      "GN": 2346,
      "ven": 2347,
      "register": 2348,
      "RuntimeException": 2349,
      "ardinality": 2350,
      "go": 2351,
      "getClass": 2352,
      "itGateway": 2353,
      "Ġtoken": 2354,
      "essment": 2355,
      "Actions": 2356,
      "New": 2357,
      "ormal": 2358,
      "ee": 2359,
      "field": 2360,
      "ram": 2361,
      "Ġspec": 2362,
      "etadata": 2363,
      "Ġvar": 2364,
      "MaintenanceWindow": 2365,
      "Non": 2366,
      "ZE": 2367,
      "imension": 2368,
      "escriptor": 2369,
      "DS": 2370,
      "bs": 2371,
      "label": 2372,
      "loat": 2373,
      "ayout": 2374,
      "OutputStream": 2375,
      "Visible": 2376,
      "xy": 2377,
      "ense": 2378,
      "allet": 2379,
      "getDescription": 2380,
      "Ġremove": 2381,
      "tempt": 2382,
      "AS": 2383,
      "JEC": 2384,
      "path": 2385,
      "ason": 2386,
      "Ġreplace": 2387,
      "ĠTO": 2388,
      "ached": 2389,
      "Activity": 2390,
      "avigation": 2391,
      "child": 2392,
      "Ġmap": 2393,
      "addAll": 2394,
      "Ġresponse": 2395,
      "LIC": 2396,
      "================": 2397,
      "Ġtile": 2398,
      "sert": 2399,
      "Ġcontinue": 2400,
      "anization": 2401,
      "eline": 2402,
      "Ġiter": 2403,
      "Targets": 2404,
      "Head": 2405,
      "Ġparams": 2406,
      "RY": 2407,
      "supported": 2408,
      "ĠOP": 2409,
      "Ġver": 2410,
      "ĠCRE": 2411,
      "IP": 2412,
      "PRE": 2413,
      "boolean": 2414,
      "run": 2415,
      "Ġbl": 2416,
      "Delivery": 2417,
      "Wrapper": 2418,
      "Progress": 2419,
      "gging": 2420,
      "yped": 2421,
      "Ġ++": 2422,
      "DEFAULT": 2423,
      "Ġany": 2424,
      "Build": 2425,
      "dd": 2426,
      "setF": 2427,
      "ĠexecuteUpdate": 2428,
      "ĠIllegalStateException": 2429,
      "SecurityGroup": 2430,
      "CK": 2431,
      "getR": 2432,
      "Reserved": 2433,
      "version": 2434,
      "Cost": 2435,
      "Next": 2436,
      "ceptor": 2437,
      "Eng": 2438,
      "Ġchron": 2439,
      "Control": 2440,
      "Ġgener": 2441,
      "ATED": 2442,
      "PUT": 2443,
      "max": 2444,
      "Ġbase": 2445,
      "acter": 2446,
      "Ġconn": 2447,
      "Metrics": 2448,
      "LoadBalancer": 2449,
      "AST": 2450,
      "ationRequest": 2451,
      "peable": 2452,
      "ranch": 2453,
      "ANGE": 2454,
      "ĠWe": 2455,
      "ĠUn": 2456,
      "tex": 2457,
      "GET": 2458,
      "itive": 2459,
      "Ġshort": 2460,
      "irectConnect": 2461,
      "Engine": 2462,
      "irectConnectGateway": 2463,
      "Statis": 2464,
      "ĠTransaction": 2465,
      "TES": 2466,
      "Async": 2467,
      "Vpn": 2468,
      "attributes": 2469,
      "ERROR": 2470,
      "Criteria": 2471,
      "kip": 2472,
      "ĉĉĊ": 2473,
      "args": 2474,
      "getUser": 2475,
      "Ġline": 2476,
      "Ġad": 2477,
      "asic": 2478,
      "Connector": 2479,
      "viders": 2480,
      "anges": 2481,
      "Ġparameter": 2482,
      "close": 2483,
      "agment": 2484,
      "Ġresol": 2485,
      "ChannelRequest": 2486,
      "Height": 2487,
      "Auto": 2488,
      "arator": 2489,
      "64": 2490,
      "Ġtransaction": 2491,
      "Ġdecl": 2492,
      "Dt": 2493,
      "ful": 2494,
      "ln": 2495,
      "Ġref": 2496,
      "Ġhigh": 2497,
      "Found": 2498,
      "XML": 2499,
      "zone": 2500,
      "++;": 2501,
      "ACK": 2502,
      "Ġcx": 2503,
      "Ġonly": 2504,
      "Pass": 2505,
      "Ġtx": 2506,
      "ConfigurationRequest": 2507,
      "Statement": 2508,
      "Allow": 2509,
      "incipal": 2510,
      "Ġpo": 2511,
      "ĠPRO": 2512,
      "Ġwill": 2513,
      "TED": 2514,
      "Lat": 2515,
      "VENT": 2516,
      "comm": 2517,
      "plement": 2518,
      "vers": 2519,
      "cord": 2520,
      "Ġcount": 2521,
      "Ġinstant": 2522,
      "view": 2523,
      "ĠNotification": 2524,
      "uff": 2525,
      "tx": 2526,
      "Ġlocal": 2527,
      "ryp": 2528,
      "ĠElement": 2529,
      "Ġanswer": 2530,
      "Max": 2531,
      "SK": 2532,
      "Ġuse": 2533,
      "ptions": 2534,
      "Ġversion": 2535,
      "FieldType": 2536,
      "println": 2537,
      "Ġcl": 2538,
      "thm": 2539,
      "Ġmy": 2540,
      "ating": 2541,
      "MS": 2542,
      "ĠArray": 2543,
      "rototype": 2544,
      "embers": 2545,
      ")))": 2546,
      "struction": 2547,
      "riginal": 2548,
      "ĠSTATUS": 2549,
      "');": 2550,
      "Ġtrans": 2551,
      "Ġnumber": 2552,
      "que": 2553,
      "Ġrun": 2554,
      "Retry": 2555,
      "ĠME": 2556,
      "riori": 2557,
      "ases": 2558,
      "applic": 2559,
      "Ġshould": 2560,
      "Storage": 2561,
      "Write": 2562,
      "Health": 2563,
      "ervation": 2564,
      "GS": 2565,
      "Http": 2566,
      "Language": 2567,
      "aration": 2568,
      "Ġsyn": 2569,
      "SIZE": 2570,
      "Ġmay": 2571,
      "ocket": 2572,
      "property": 2573,
      "voke": 2574,
      "Offer": 2575,
      "ĠId": 2576,
      "rypt": 2577,
      "Logging": 2578,
      "isitor": 2579,
      "ĠByteCode": 2580,
      "PLI": 2581,
      "]);": 2582,
      "alendar": 2583,
      "Ġstream": 2584,
      "itional": 2585,
      "****": 2586,
      "Launch": 2587,
      "tial": 2588,
      "ane": 2589,
      "imal": 2590,
      "ĠIter": 2591,
      "ParameterType": 2592,
      "Ġgroup": 2593,
      "erial": 2594,
      "Ġcompiler": 2595,
      "imum": 2596,
      "adding": 2597,
      "umn": 2598,
      "ĠAC": 2599,
      "umeric": 2600,
      "WorkflowExecution": 2601,
      "ASE": 2602,
      "ures": 2603,
      "Command": 2604,
      "Duration": 2605,
      "ision": 2606,
      "ailure": 2607,
      "ĠDESCRIPTION": 2608,
      "Constructor": 2609,
      "Ġchrono": 2610,
      "VO": 2611,
      "lat": 2612,
      "nown": 2613,
      "coded": 2614,
      "msg": 2615,
      "Web": 2616,
      "ĠException": 2617,
      "enable": 2618,
      "lect": 2619,
      "Ġcache": 2620,
      "Arg": 2621,
      "ventory": 2622,
      "Formatter": 2623,
      "Stop": 2624,
      "cre": 2625,
      "Ġ);": 2626,
      "resent": 2627,
      "Ġload": 2628,
      "signed": 2629,
      "Month": 2630,
      "Use": 2631,
      "super": 2632,
      "addParameter": 2633,
      "container": 2634,
      "Specific": 2635,
      "ĠContext": 2636,
      "array": 2637,
      "state": 2638,
      "ists": 2639,
      "apter": 2640,
      "ameSession": 2641,
      "Limit": 2642,
      "faces": 2643,
      "ĠĠĠĠĠĠ": 2644,
      "Ġtypes": 2645,
      "getMeta": 2646,
      "This": 2647,
      "valueOf": 2648,
      "RN": 2649,
      "arg": 2650,
      "token": 2651,
      "History": 2652,
      "Kind": 2653,
      "last": 2654,
      "Requests": 2655,
      "aining": 2656,
      "Ġchannel": 2657,
      "DataSource": 2658,
      "Ġelement": 2659,
      "Warnings": 2660,
      "Dig": 2661,
      "builder": 2662,
      "atus": 2663,
      "Mapper": 2664,
      "ĠMatch": 2665,
      "Ġap": 2666,
      "ĠRuntimeException": 2667,
      "VersionRequest": 2668,
      "ĠEX": 2669,
      "ĠThis": 2670,
      "pository": 2671,
      "PLICATION": 2672,
      "Bo": 2673,
      "Uri": 2674,
      "Ġattribute": 2675,
      "Ġtask": 2676,
      "Ġfound": 2677,
      "Ġbuf": 2678,
      "redicate": 2679,
      "Long": 2680,
      "){": 2681,
      "Helper": 2682,
      "ient": 2683,
      "isting": 2684,
      "Ġneed": 2685,
      "org": 2686,
      "Style": 2687,
      "Descriptions": 2688,
      "Secondary": 2689,
      "Boolean": 2690,
      "med": 2691,
      "gorithm": 2692,
      "<>(": 2693,
      "BER": 2694,
      "VED": 2695,
      "Ġexception": 2696,
      "ounter": 2697,
      "0000": 2698,
      "UPDATE": 2699,
      "Topic": 2700,
      "title": 2701,
      "Liter": 2702,
      "ie": 2703,
      "wner": 2704,
      "Ġcol": 2705,
      "ome": 2706,
      "ĠJSType": 2707,
      "Ġreader": 2708,
      "=='": 2709,
      "Ġ/*": 2710,
      "Scheduled": 2711,
      "Pipeline": 2712,
      "kill": 2713,
      "Instant": 2714,
      "(\"[": 2715,
      "gram": 2716,
      "he": 2717,
      "Ġright": 2718,
      "ested": 2719,
      "Ġcopy": 2720,
      "Ġ\",": 2721,
      "Meta": 2722,
      "Namespace": 2723,
      "Interval": 2724,
      "Module": 2725,
      "--------": 2726,
      "Credentials": 2727,
      "Prim": 2728,
      "ĠgetM": 2729,
      "ORDER": 2730,
      "highLowContainer": 2731,
      "riority": 2732,
      "pend": 2733,
      "trans": 2734,
      "INSTANCE": 2735,
      "ift": 2736,
      "cons": 2737,
      "box": 2738,
      "defined": 2739,
      "Elasticsearch": 2740,
      "Allowed": 2741,
      "Super": 2742,
      "Store": 2743,
      "instant": 2744,
      "isit": 2745,
      "\".": 2746,
      "FO": 2747,
      "NS": 2748,
      "client": 2749,
      "Ġpr": 2750,
      "ĠDO": 2751,
      "Sets": 2752,
      "tify": 2753,
      "element": 2754,
      "gex": 2755,
      "formation": 2756,
      "Facet": 2757,
      "Background": 2758,
      "OF": 2759,
      "document": 2760,
      "sm": 2761,
      "lector": 2762,
      "ulation": 2763,
      "Ġsend": 2764,
      "Ġinitial": 2765,
      "Spot": 2766,
      "Ġparameters": 2767,
      "VICE": 2768,
      "TRAN": 2769,
      "ines": 2770,
      "Ġreport": 2771,
      "Ġimage": 2772,
      "Organization": 2773,
      "var": 2774,
      "qual": 2775,
      "URI": 2776,
      "Files": 2777,
      "Contact": 2778,
      "Attachment": 2779,
      "Phone": 2780,
      "chronized": 2781,
      "Feature": 2782,
      "IM": 2783,
      "PA": 2784,
      "Sc": 2785,
      "lers": 2786,
      "ens": 2787,
      "elp": 2788,
      "ĠVisitor": 2789,
      "switch": 2790,
      "Voice": 2791,
      "double": 2792,
      "ĠUSER": 2793,
      "losing": 2794,
      "ORT": 2795,
      "UserRequest": 2796,
      "Be": 2797,
      "Day": 2798,
      "cated": 2799,
      "ingStrategy": 2800,
      "Ġsecond": 2801,
      "ĠAdd": 2802,
      "Updates": 2803,
      "ĠMod": 2804,
      "TaskRequest": 2805,
      "SSAGE": 2806,
      "ever": 2807,
      "task": 2808,
      "Setting": 2809,
      "Edges": 2810,
      "bl": 2811,
      "obj": 2812,
      "sc": 2813,
      "Ġlow": 2814,
      "Ġfr": 2815,
      "params": 2816,
      "Ġleft": 2817,
      "part": 2818,
      "ework": 2819,
      "service": 2820,
      "Optional": 2821,
      "Audit": 2822,
      "aiter": 2823,
      "fecycle": 2824,
      "INGS": 2825,
      "Ġfilter": 2826,
      "SecondaryIndex": 2827,
      "IF": 2828,
      "Ġempty": 2829,
      "ĠgetDryRun": 2830,
      "States": 2831,
      "SIGN": 2832,
      "ĠgetDryRunRequest": 2833,
      "Js": 2834,
      "MIN": 2835,
      "short": 2836,
      "addAnnotation": 2837,
      "ToRemove": 2838,
      "Ġhttp": 2839,
      "Assessment": 2840,
      "Errors": 2841,
      "okup": 2842,
      "TransitGateway": 2843,
      "Double": 2844,
      "WOR": 2845,
      "cul": 2846,
      "kind": 2847,
      "ĠĠĠĠĠĠĠĠĊ": 2848,
      "asure": 2849,
      "Converter": 2850,
      "Ġlabel": 2851,
      "location": 2852,
      "getSource": 2853,
      "Availability": 2854,
      "pc": 2855,
      "ted": 2856,
      "Ġmodel": 2857,
      "REN": 2858,
      "Ġservice": 2859,
      "Mark": 2860,
      "call": 2861,
      "object": 2862,
      "Revision": 2863,
      "ĉĉĠ": 2864,
      "entities": 2865,
      "inked": 2866,
      "ullRequest": 2867,
      "DataType": 2868,
      "Select": 2869,
      "IOException": 2870,
      "hash": 2871,
      "Report": 2872,
      "Required": 2873,
      "Ġthen": 2874,
      "Cons": 2875,
      "Delet": 2876,
      "ĠVisitorState": 2877,
      "IG": 2878,
      "ward": 2879,
      "ĠRO": 2880,
      "argetMeta": 2881,
      "ingArtifact": 2882,
      "essages": 2883,
      "Ġbitmap": 2884,
      "ĠTim": 2885,
      "plica": 2886,
      "ĠHttp": 2887,
      "ĠThe": 2888,
      "afe": 2889,
      "Tra": 2890,
      "mazon": 2891,
      "Ġlock": 2892,
      "items": 2893,
      "ottom": 2894,
      "ĠAUT": 2895,
      "ĠText": 2896,
      "Fields": 2897,
      "book": 2898,
      "SecurityGroups": 2899,
      "Statistics": 2900,
      "25": 2901,
      "xFF": 2902,
      "erge": 2903,
      "Ġwrite": 2904,
      "Ġchain": 2905,
      "UND": 2906,
      "default": 2907,
      "ĠLOG": 2908,
      "avail": 2909,
      "END": 2910,
      "ResourceRequest": 2911,
      "Place": 2912,
      "Ġmsg": 2913,
      "Constraint": 2914,
      "http": 2915,
      "getContainer": 2916,
      "Providers": 2917,
      "cx": 2918,
      "Expr": 2919,
      "plicit": 2920,
      "Thread": 2921,
      "ĠHelper": 2922,
      "Suppress": 2923,
      ")));": 2924,
      "sWith": 2925,
      "ĠMath": 2926,
      "ĠTODO": 2927,
      "domain": 2928,
      "fol": 2929,
      "message": 2930,
      "Ġ};": 2931,
      "Unsigned": 2932,
      "Integration": 2933,
      "Templates": 2934,
      "Ġdoes": 2935,
      "JSType": 2936,
      "JECT": 2937,
      "::": 2938,
      "Evalu": 2939,
      "Registry": 2940,
      "ĠĠĠĠĠĠĠĠĠĠ": 2941,
      "aset": 2942,
      "ĠĠĠĠĠĠĠĠĠĠĠĠĠĠĠĠĠĠĠĠĠĠĠĠĠĠĠĠĠĠĠĠĠĠĠ": 2943,
      "UserPool": 2944,
      "MAX": 2945,
      "Jd": 2946,
      "hir": 2947,
      "ero": 2948,
      "ended": 2949,
      "ĠPeriod": 2950,
      "image": 2951,
      "Ġconvert": 2952,
      "StatusRequest": 2953,
      "Created": 2954,
      "Membership": 2955,
      "Provisioned": 2956,
      "Watch": 2957,
      "getTime": 2958,
      "stack": 2959,
      "Ġoriginal": 2960,
      "COMP": 2961,
      "Ġcomponent": 2962,
      "Multi": 2963,
      "bility": 2964,
      "model": 2965,
      "offset": 2966,
      "tebook": 2967,
      "ĠComp": 2968,
      "Ġits": 2969,
      "NotFound": 2970,
      "ĠretVal": 2971,
      "Comment": 2972,
      "Ġsynchronized": 2973,
      "Help": 2974,
      "WS": 2975,
      "Ġorder": 2976,
      "Ġregister": 2977,
      "Fram": 2978,
      "da": 2979,
      "gent": 2980,
      "rop": 2981,
      "ise": 2982,
      "urs": 2983,
      "ample": 2984,
      "Ġmetadata": 2985,
      "ĠTY": 2986,
      "STO": 2987,
      "ĠLinked": 2988,
      "Ġprotected": 2989,
      "udio": 2990,
      "clear": 2991,
      "coveryPoint": 2992,
      "RelationalDatabase": 2993,
      "ationExecution": 2994,
      "ĠNO": 2995,
      "Ġitem": 2996,
      "ĠScriptRuntime": 2997,
      "versal": 2998,
      "CA": 2999,
      "DirectConnectGateway": 3000,
      "ULE": 3001,
      "files": 3002,
      "rup": 3003,
      "Ġcontent": 3004,
      "leted": 3005,
      "Ġyear": 3006,
      "Flags": 3007,
      "Framework": 3008,
      "Typed": 3009,
      "Exp": 3010,
      "amb": 3011,
      "Ġwas": 3012,
      "Project": 3013,
      "vious": 3014,
      "ifiers": 3015,
      "clust": 3016,
      "Arguments": 3017,
      "Parser": 3018,
      "COUNT": 3019,
      "(@": 3020,
      "ĠSh": 3021,
      "ĠDouble": 3022,
      "ĠTree": 3023,
      "Ġallow": 3024,
      "DetectionJob": 3025,
      "ĠMatcher": 3026,
      "CAL": 3027,
      "Ġtmp": 3028,
      "getStart": 3029,
      "Ġbatch": 3030,
      "ready": 3031,
      "Ġenc": 3032,
      "Permissions": 3033,
      "Ġassign": 3034,
      "IZ": 3035,
      "det": 3036,
      "js": 3037,
      "Ġdi": 3038,
      "CertificateAuthori": 3039,
      "ProfileRequest": 3040,
      "empty": 3041,
      "ynamic": 3042,
      "Constants": 3043,
      "application": 3044,
      "Offering": 3045,
      "Cancel": 3046,
      "PAT": 3047,
      "Peers": 3048,
      "tal": 3049,
      "ware": 3050,
      "getTags": 3051,
      "lit": 3052,
      "atient": 3053,
      "cogn": 3054,
      "Callback": 3055,
      "processed": 3056,
      "azz": 3057,
      "Body": 3058,
      "Fix": 3059,
      "Sim": 3060,
      "function": 3061,
      "utom": 3062,
      "yper": 3063,
      "ref": 3064,
      "getDefault": 3065,
      "ersRequest": 3066,
      "DefinitionRequest": 3067,
      "Workspace": 3068,
      "Return": 3069,
      "no": 3070,
      "ĠfeatureID": 3071,
      "ical": 3072,
      "Ġconstr": 3073,
      "ĠFunction": 3074,
      "redential": 3075,
      "NE": 3076,
      "Termin": 3077,
      "Ġannotation": 3078,
      "estamp": 3079,
      "cei": 3080,
      "import": 3081,
      "FIX": 3082,
      "Associations": 3083,
      "Attempt": 3084,
      "InstancesRequest": 3085,
      "Available": 3086,
      ":\"": 3087,
      "LY": 3088,
      "ush": 3089,
      "ick": 3090,
      "TABLE": 3091,
      "ignore": 3092,
      "reset": 3093,
      "entic": 3094,
      "ertificates": 3095,
      "parameter": 3096,
      "containsKey": 3097,
      "Ġblack": 3098,
      "Ġresolve": 3099,
      "32": 3100,
      "Bud": 3101,
      "false": 3102,
      "first": 3103,
      "Ġthere": 3104,
      "ired": 3105,
      "mote": 3106,
      "AttributesRequest": 3107,
      "Character": 3108,
      "Visitor": 3109,
      "Jdon": 3110,
      "ĠTYPE": 3111,
      "Layout": 3112,
      "policy": 3113,
      "Ġ[": 3114,
      "erRequest": 3115,
      "ĠAS": 3116,
      "].": 3117,
      "ped": 3118,
      "ols": 3119,
      "ampl": 3120,
      "Ġfac": 3121,
      "Collector": 3122,
      "UNI": 3123,
      "exec": 3124,
      "TORY": 3125,
      "uccessful": 3126,
      "Declaration": 3127,
      "Layer": 3128,
      "Orig": 3129,
      "UC": 3130,
      "cache": 3131,
      "Ġ8": 3132,
      "inary": 3133,
      "getIn": 3134,
      "Ġinit": 3135,
      "icense": 3136,
      "Ġexp": 3137,
      "cover": 3138,
      "attach": 3139,
      "CHANGE": 3140,
      "AtIndex": 3141,
      "Modify": 3142,
      "Records": 3143,
      "Ġroot": 3144,
      "roll": 3145,
      "ynamo": 3146,
      "ĠImmutableList": 3147,
      "JdonFramework": 3148,
      "GameSession": 3149,
      "Members": 3150,
      "bitmap": 3151,
      "iff": 3152,
      "Week": 3153,
      "Generic": 3154,
      "Password": 3155,
      "Helpers": 3156,
      "Chunk": 3157,
      "ĠCH": 3158,
      "compare": 3159,
      "Bl": 3160,
      "Future": 3161,
      "Private": 3162,
      "Pending": 3163,
      "buffer": 3164,
      "tags": 3165,
      "Ġappend": 3166,
      "atible": 3167,
      "Defined": 3168,
      "expression": 3169,
      "Transform": 3170,
      "ĠTAGS": 3171,
      "CONFIGURATION": 3172,
      "Wh": 3173,
      "ĠsetS": 3174,
      "Ġlen": 3175,
      "STATUS": 3176,
      "Selection": 3177,
      "Gran": 3178,
      "Tile": 3179,
      "Ġab": 3180,
      "Ġbuild": 3181,
      "igInteger": 3182,
      "Ġmember": 3183,
      "endpoint": 3184,
      "Adapter": 3185,
      "FileShare": 3186,
      "COL": 3187,
      "Selector": 3188,
      "Seconds": 3189,
      "Ranges": 3190,
      "not": 3191,
      "enari": 3192,
      "celer": 3193,
      "Ġsele": 3194,
      "ONE": 3195,
      "SetRequest": 3196,
      "condition": 3197,
      "SECON": 3198,
      "UNSET": 3199,
      "Algorithm": 3200,
      "content": 3201,
      "Signature": 3202,
      "utorService": 3203,
      "ynamoDB": 3204,
      "BE": 3205,
      "Hour": 3206,
      "reation": 3207,
      "Ġ\");": 3208,
      "Reservation": 3209,
      "REC": 3210,
      "Column": 3211,
      "Ġ10": 3212,
      "ĠVAL": 3213,
      "cale": 3214,
      "Ġkeys": 3215,
      "ambda": 3216,
      "ĠK": 3217,
      "ences": 3218,
      "Reason": 3219,
      "ferred": 3220,
      "Player": 3221,
      "ĠcheckState": 3222,
      "EAttribute": 3223,
      "block": 3224,
      "just": 3225,
      "INE": 3226,
      "INTER": 3227,
      "Ġwork": 3228,
      "Proxy": 3229,
      "ANG": 3230,
      "Endpoints": 3231,
      "Trace": 3232,
      "Hole": 3233,
      "URE": 3234,
      "UTION": 3235,
      "sure": 3236,
      "warn": 3237,
      "Ġmake": 3238,
      "getDocument": 3239,
      "ugh": 3240,
      "LOW": 3241,
      "hasNext": 3242,
      "Identifiers": 3243,
      "Principal": 3244,
      "rypto": 3245,
      "SuppressWarnings": 3246,
      "ĠblackHole": 3247,
      "MI": 3248,
      "TRI": 3249,
      "mix": 3250,
      "names": 3251,
      "Ġz": 3252,
      "Ġdon": 3253,
      "Interfaces": 3254,
      "Headers": 3255,
      "enario": 3256,
      "16": 3257,
      ">()": 3258,
      "LU": 3259,
      "Ġ(\"": 3260,
      "thing": 3261,
      "newValue": 3262,
      "Disk": 3263,
      "ĠMappeable": 3264,
      "Based": 3265,
      "Payment": 3266,
      "Mat": 3267,
      "WN": 3268,
      "aption": 3269,
      "dB": 3270,
      "ĠNo": 3271,
      "Statuses": 3272,
      "moved": 3273,
      "Ġwhen": 3274,
      "Ġheight": 3275,
      "OD": 3276,
      "buf": 3277,
      "Ġnum": 3278,
      "aster": 3279,
      "Ġsearch": 3280,
      "Ġback": 3281,
      "REFER": 3282,
      "Ġhandle": 3283,
      "Ġcondition": 3284,
      "ections": 3285,
      "Num": 3286,
      "Zon": 3287,
      "Ġpart": 3288,
      "Ġstop": 3289,
      "rowable": 3290,
      "play": 3291,
      "ĠLoc": 3292,
      "ĠLong": 3293,
      "ferences": 3294,
      "Lock": 3295,
      "Ġgraph": 3296,
      "backup": 3297,
      "matches": 3298,
      "ĠHashMap": 3299,
      "Normal": 3300,
      "Pub": 3301,
      "ait": 3302,
      "Ġtr": 3303,
      "Stage": 3304,
      "Ġrule": 3305,
      "LEARN": 3306,
      "ĠWaiter": 3307,
      "consume": 3308,
      "cluster": 3309,
      "##": 3310,
      "find": 3311,
      "reat": 3312,
      "getJob": 3313,
      "Ġnon": 3314,
      "Ġnodes": 3315,
      "Ġthan": 3316,
      "stall": 3317,
      "Ġvisit": 3318,
      "setText": 3319,
      "ĠBatch": 3320,
      "ĠLAST": 3321,
      "EndpointRequest": 3322,
      "ExpressionTree": 3323,
      "eparator": 3324,
      "medi": 3325,
      "UNIQUE": 3326,
      "Lon": 3327,
      "Ġ5": 3328,
      "device": 3329,
      "ĠSER": 3330,
      "TypeRequest": 3331,
      "ĠAtt": 3332,
      "Ġcomm": 3333,
      "startsWith": 3334,
      "ĠDEFAULT": 3335,
      "LATI": 3336,
      "LASS": 3337,
      "ByteArray": 3338,
      "Portfol": 3339,
      "Ġserver": 3340,
      "celerator": 3341,
      "Bundle": 3342,
      "EObject": 3343,
      "FS": 3344,
      "OUT": 3345,
      "QL": 3346,
      "RA": 3347,
      "Word": 3348,
      "ean": 3349,
      "Ġaction": 3350,
      "Ġtags": 3351,
      "ular": 3352,
      "Ġcal": 3353,
      "Ġalready": 3354,
      "IR": 3355,
      "rools": 3356,
      "report": 3357,
      "getE": 3358,
      "idr": 3359,
      "ParameterValue": 3360,
      "SETT": 3361,
      "Down": 3362,
      "des": 3363,
      "ible": 3364,
      "sed": 3365,
      "getTarget": 3366,
      "Ent": 3367,
      "Serv": 3368,
      "orig": 3369,
      "UMBER": 3370,
      "Current": 3371,
      "EVENT": 3372,
      "network": 3373,
      "uri": 3374,
      "ĠSchema": 3375,
      "Ġmonth": 3376,
      "ĠPut": 3377,
      "ints": 3378,
      "Classifier": 3379,
      "pons": 3380,
      "ugin": 3381,
      "reshold": 3382,
      "TRANSI": 3383,
      "ursor": 3384,
      "IVED": 3385,
      "SER": 3386,
      "Ġnames": 3387,
      "Ġper": 3388,
      "demix": 3389,
      "Labels": 3390,
      "Literal": 3391,
      "10": 3392,
      "Can": 3393,
      "ELE": 3394,
      "jection": 3395,
      "Ġapp": 3396,
      "tored": 3397,
      "led": 3398,
      "Ġclo": 3399,
      "Ġcannot": 3400,
      "Ġoper": 3401,
      "visit": 3402,
      "connect": 3403,
      "LATILE": 3404,
      "TRANSIENT": 3405,
      "Descriptor": 3406,
      "Failure": 3407,
      "Mo": 3408,
      "stop": 3409,
      "table": 3410,
      "uch": 3411,
      "ĠChart": 3412,
      "amed": 3413,
      "Ġrest": 3414,
      "itle": 3415,
      "Ġsc": 3416,
      "CESS": 3417,
      "Attachments": 3418,
      "Cloud": 3419,
      "NonNull": 3420,
      "ĠElementMatcher": 3421,
      "VOLATILE": 3422,
      "Box": 3423,
      "ĠLocal": 3424,
      "\").": 3425,
      "Agent": 3426,
      "Vari": 3427,
      "auth": 3428,
      "ph": 3429,
      "Ġdec": 3430,
      "resol": 3431,
      "Ġprop": 3432,
      "stract": 3433,
      "Definitions": 3434,
      "equence": 3435,
      "Trigger": 3436,
      "Segment": 3437,
      "TIFI": 3438,
      "Tasks": 3439,
      "Secret": 3440,
      "ĠEC": 3441,
      "emplate": 3442,
      "ĠCollections": 3443,
      "ollingStrategy": 3444,
      "titleText": 3445,
      "ORDERED": 3446,
      "Entries": 3447,
      "ced": 3448,
      "urch": 3449,
      "ank": 3450,
      "Inventory": 3451,
      "Ġsupported": 3452,
      "Ġvariable": 3453,
      "ĠAn": 3454,
      "UNIT": 3455,
      "DBCluster": 3456,
      "urchase": 3457,
      "MATCH": 3458,
      "Navigation": 3459,
      "\\\\": 3460,
      "oni": 3461,
      "getApplication": 3462,
      "rie": 3463,
      "edia": 3464,
      "Ġsession": 3465,
      "Paths": 3466,
      "CONT": 3467,
      "Fragment": 3468,
      "ĠEND": 3469,
      "SCRIPT": 3470,
      "AB": 3471,
      "GER": 3472,
      "Ġ`": 3473,
      "atform": 3474,
      "edge": 3475,
      "indexOf": 3476,
      "DERIVED": 3477,
      "CHANGEABLE": 3478,
      "UNSETTABLE": 3479,
      "ich": 3480,
      "json": 3481,
      "replication": 3482,
      "Ġcf": 3483,
      "Ġfailed": 3484,
      "Ġbasic": 3485,
      "ENAR": 3486,
      "strument": 3487,
      "The": 3488,
      "Locale": 3489,
      "ĠĠĠĠĠĠĠĠĠĠĠĠĠĠ": 3490,
      "MODE": 3491,
      "ProvisioningArtifact": 3492,
      "yperParameter": 3493,
      "Origin": 3494,
      "roolsPackage": 3495,
      "ENARIO": 3496,
      "EDEFAULT": 3497,
      "metric": 3498,
      "aly": 3499,
      "getH": 3500,
      "tories": 3501,
      "Ġauth": 3502,
      "Ġitems": 3503,
      "RuleRequest": 3504,
      "LOG": 3505,
      "ucture": 3506,
      "iterator": 3507,
      "QUEST": 3508,
      "Bounds": 3509,
      "setFill": 3510,
      "entication": 3511,
      "Portfolio": 3512,
      "Branch": 3513,
      "License": 3514,
      "Skill": 3515,
      "ning": 3516,
      "pli": 3517,
      "ta": 3518,
      "tra": 3519,
      "inen": 3520,
      "ingle": 3521,
      "Ġbec": 3522,
      "Ġreq": 3523,
      "Active": 3524,
      "Ġproperties": 3525,
      "Ġjob": 3526,
      "POSI": 3527,
      "SETTINGS": 3528,
      "aded": 3529,
      "now": 3530,
      "nos": 3531,
      "getClient": 3532,
      "Ġpolicy": 3533,
      "Ġbo": 3534,
      "Ġmillis": 3535,
      "ĠBuffer": 3536,
      "DataValue": 3537,
      "ECUTION": 3538,
      "bose": 3539,
      "ATA": 3540,
      "Clust": 3541,
      "Junction": 3542,
      "RGET": 3543,
      "TL": 3544,
      "fsw": 3545,
      "ws": 3546,
      "getToken": 3547,
      "Repository": 3548,
      "Ġwriter": 3549,
      "Ġwallet": 3550,
      "ĠDuration": 3551,
      "ĠIR": 3552,
      "UNCTION": 3553,
      "clus": 3554,
      "writeDataValue": 3555,
      "Specifications": 3556,
      "ĠChartUtils": 3557,
      "FORM": 3558,
      "scope": 3559,
      "void": 3560,
      "agnos": 3561,
      "ayload": 3562,
      "Ġdescription": 3563,
      "ObjectRequest": 3564,
      "ĠNodeUtil": 3565,
      "RIBUTES": 3566,
      "POINT": 3567,
      "Ġvalidate": 3568,
      "configuration": 3569,
      "ineno": 3570,
      "iness": 3571,
      "istance": 3572,
      "Ġchunk": 3573,
      "Ġcontainer": 3574,
      "Ġ{}\",": 3575,
      "ĠArrays": 3576,
      "Evaluation": 3577,
      "After": 3578,
      "BASE": 3579,
      "NEC": 3580,
      "easure": 3581,
      "gra": 3582,
      "estion": 3583,
      "RecoveryPoint": 3584,
      "ĠAmazon": 3585,
      "TagsRequest": 3586,
      "Notebook": 3587,
      "Proto": 3588,
      "known": 3589,
      "number": 3590,
      "por": 3591,
      "script": 3592,
      "vocation": 3593,
      "ĠPO": 3594,
      "MESSAGE": 3595,
      "Jobs": 3596,
      "Intent": 3597,
      "Enclosing": 3598,
      "ABLED": 3599,
      "Ġsignature": 3600,
      "filters": 3601,
      "Bar": 3602,
      "DD": 3603,
      "IC": 3604,
      "Ġinto": 3605,
      "Ġdig": 3606,
      "Ġdocument": 3607,
      "EventDetails": 3608,
      "Ġ>>>": 3609,
      "getPath": 3610,
      "VALID": 3611,
      "Placement": 3612,
      "grade": 3613,
      "dy": 3614,
      "directory": 3615,
      "year": 3616,
      "Ġ6": 3617,
      "ĠU": 3618,
      "EventListener": 3619,
      "Shape": 3620,
      "ĠIterator": 3621,
      "BY": 3622,
      "Each": 3623,
      "PC": 3624,
      "Way": 3625,
      "down": 3626,
      "second": 3627,
      "enu": 3628,
      "orre": 3629,
      "channel": 3630,
      "Ġskip": 3631,
      "Infos": 3632,
      "CertificateRequest": 3633,
      "BackupVault": 3634,
      "available": 3635,
      "FIN": 3636,
      "br": 3637,
      "curr": 3638,
      "custom": 3639,
      "ĠKEY": 3640,
      "ĠOptional": 3641,
      "lish": 3642,
      "REAM": 3643,
      "andmark": 3644,
      "response": 3645,
      "ponses": 3646,
      "Ġignore": 3647,
      "tili": 3648,
      "deployment": 3649,
      "ics": 3650,
      "else": 3651,
      "ternet": 3652,
      "Ġarguments": 3653,
      "pose": 3654,
      "ĠField": 3655,
      "Appro": 3656,
      "keys": 3657,
      "ILLI": 3658,
      "ĠVALUE": 3659,
      "Zones": 3660,
      "Padding": 3661,
      "Slot": 3662,
      "num": 3663,
      "arm": 3664,
      "Relation": 3665,
      "Init": 3666,
      "ClientVpn": 3667,
      "Ġmulti": 3668,
      "ĠAST": 3669,
      "visor": 3670,
      "000": 3671,
      "ĠINSTANCE": 3672,
      "Ġmatcher": 3673,
      "DestinationSettings": 3674,
      "ProvisionedProduct": 3675,
      "Credential": 3676,
      "First": 3677,
      "maining": 3678,
      "wh": 3679,
      "Static": 3680,
      "Information": 3681,
      "item": 3682,
      "Conf": 3683,
      "Depre": 3684,
      "Methods": 3685,
      "Validate": 3686,
      "forEach": 3687,
      "gnore": 3688,
      "Artifacts": 3689,
      "Open": 3690,
      "ĠHashSet": 3691,
      "ĠAPPLICATION": 3692,
      "PREFIX": 3693,
      "Bit": 3694,
      "Before": 3695,
      "ILE": 3696,
      "MB": 3697,
      "cent": 3698,
      "Ġtim": 3699,
      "ĠURL": 3700,
      "Ġattributes": 3701,
      "eners": 3702,
      "ission": 3703,
      "Ġmain": 3704,
      "ToAdd": 3705,
      "GroupSettings": 3706,
      "Ġgo": 3707,
      "Ġjs": 3708,
      "IntUnsigned": 3709,
      "Commit": 3710,
      "trace": 3711,
      "PhoneNumber": 3712,
      "://": 3713,
      "GI": 3714,
      "hav": 3715,
      "rict": 3716,
      "ĠJOB": 3717,
      "Logs": 3718,
      "provision": 3719,
      "subscri": 3720,
      "Track": 3721,
      "Weight": 3722,
      "Generator": 3723,
      "rypted": 3724,
      "enableNode": 3725,
      "havi": 3726,
      "Bucket": 3727,
      "HT": 3728,
      "aign": 3729,
      "ĠQuery": 3730,
      "record": 3731,
      "Ġfn": 3732,
      "Ġ\"\";": 3733,
      "team": 3734,
      "ainingJob": 3735,
      "ConfigRequest": 3736,
      "ServiceAction": 3737,
      "otificationImpl": 3738,
      "Elements": 3739,
      "egative": 3740,
      "Dataset": 3741,
      "FleetRequest": 3742,
      "ampaign": 3743,
      "plementation": 3744,
      "ĠNotificationChain": 3745,
      "256": 3746,
      "Buddy": 3747,
      "Dimension": 3748,
      "SQL": 3749,
      "hls": 3750,
      "rule": 3751,
      "Ġfl": 3752,
      "apped": 3753,
      "getSub": 3754,
      "Immutable": 3755,
      "ATOR": 3756,
      "MPL": 3757,
      "Processor": 3758,
      "roker": 3759,
      "Qualification": 3760,
      "LICY": 3761,
      "ESet": 3762,
      "EReference": 3763,
      "gener": 3764,
      "mak": 3765,
      "Idx": 3766,
      "ggers": 3767,
      "export": 3768,
      "AttributeNames": 3769,
      "CHE": 3770,
      "Ġwhich": 3771,
      "ĠcheckArgument": 3772,
      "eries": 3773,
      "Verbose": 3774,
      "CertificateAuthority": 3775,
      "ternetGateway": 3776,
      "Tab": 3777,
      "Ġq": 3778,
      "ĠKey": 3779,
      "Ġtra": 3780,
      "Instruction": 3781,
      "Ġfix": 3782,
      "TIVE": 3783,
      "Ġhandler": 3784,
      "Ġafter": 3785,
      "AsString": 3786,
      "execute": 3787,
      "SCENARIO": 3788,
      "Ġextract": 3789,
      "Signing": 3790,
      "rawable": 3791,
      "uggested": 3792,
      "AutoScaling": 3793,
      "Len": 3794,
      "Xml": 3795,
      "ged": 3796,
      "Stand": 3797,
      "ENCE": 3798,
      "velo": 3799,
      "expected": 3800,
      "IdentityPool": 3801,
      "logVerbose": 3802,
      "roke": 3803,
      "Simulation": 3804,
      "Standard": 3805,
      "PRES": 3806,
      "dat": 3807,
      "ier": 3808,
      "sList": 3809,
      "tmp": 3810,
      "uting": 3811,
      "roid": 3812,
      "getRole": 3813,
      "Ġprivate": 3814,
      "Ġmore": 3815,
      "oder": 3816,
      "ainers": 3817,
      "ĠDroolsPackage": 3818,
      "Ġexpr": 3819,
      "Ġoptions": 3820,
      "andlers": 3821,
      "ĠARN": 3822,
      "Pointer": 3823,
      "FileSystem": 3824,
      "Ġbeen": 3825,
      "LOCK": 3826,
      "ENTRY": 3827,
      "Validator": 3828,
      "uggestion": 3829,
      "getLastChild": 3830,
      "HIT": 3831,
      "OK": 3832,
      "Supported": 3833,
      "Ġag": 3834,
      "Ġentity": 3835,
      "ĠERROR": 3836,
      "rough": 3837,
      "getInput": 3838,
      "Recogn": 3839,
      "omin": 3840,
      "umes": 3841,
      "ROL": 3842,
      "PullRequest": 3843,
      "by": 3844,
      "cast": 3845,
      "fr": 3846,
      "iven": 3847,
      "Ġtemplate": 3848,
      "Ġsym": 3849,
      "ily": 3850,
      "TIC": 3851,
      "Ġover": 3852,
      "()),": 3853,
      "andom": 3854,
      "Ġhour": 3855,
      "Ġcons": 3856,
      "ires": 3857,
      "Accelerator": 3858,
      "ĠFIL": 3859,
      "RESS": 3860,
      "ECK": 3861,
      "ITH": 3862,
      "ĠĠĠĠĠĠĠĠĠĠĠĠĠĠĠĠĠĠĠĠĠĠĠĠĠĠĠĠĠĠĠĠĠĠĠĠĠĠĠĠĠĠĠĠĠĠĠĠ": 3863,
      "Operations": 3864,
      "RouteTable": 3865,
      "Notify": 3866,
      "retVal": 3867,
      "Ġused": 3868,
      "VirtualInterface": 3869,
      "command": 3870,
      "Primitive": 3871,
      "VoiceConnector": 3872,
      "BO": 3873,
      "CLASS": 3874,
      "Db": 3875,
      "elastic": 3876,
      "Configs": 3877,
      "Ġhere": 3878,
      "post": 3879,
      "irection": 3880,
      "ipher": 3881,
      "ULL": 3882,
      "VpcEndpoint": 3883,
      "Readable": 3884,
      "Baseline": 3885,
      "ĠbasicSet": 3886,
      "Deprecated": 3887,
      "JC": 3888,
      "err": 3889,
      "getData": 3890,
      "getVersion": 3891,
      "step": 3892,
      "chain": 3893,
      "Ġbucket": 3894,
      "account": 3895,
      "Identities": 3896,
      "getMin": 3897,
      "Ġdet": 3898,
      "eleg": 3899,
      "anner": 3900,
      "Ġjust": 3901,
      "owner": 3902,
      "Ġaccess": 3903,
      "coming": 3904,
      "ontSize": 3905,
      "Ġreplacement": 3906,
      "Ġbecause": 3907,
      "Cannot": 3908,
      "HE": 3909,
      "VEN": 3910,
      "getText": 3911,
      "ors": 3912,
      "Ġsame": 3913,
      "ĠSer": 3914,
      "adow": 3915,
      "Ġbody": 3916,
      "Ġwidth": 3917,
      "Ġprovider": 3918,
      "templ": 3919,
      "Associate": 3920,
      "Partition": 3921,
      "Ġprev": 3922,
      "RYP": 3923,
      "TypedLink": 3924,
      "ELEMENT": 3925,
      "):": 3926,
      "CI": 3927,
      "Cidr": 3928,
      "ke": 3929,
      "patch": 3930,
      "style": 3931,
      "TypeDescription": 3932,
      "vir": 3933,
      "ĠBlock": 3934,
      "FIER": 3935,
      "ACL": 3936,
      "Operand": 3937,
      "MAIN": 3938,
      "ClusterRequest": 3939,
      "ApplicationRequest": 3940,
      "rawler": 3941,
      "escape": 3942,
      "ĠTime": 3943,
      "VA": 3944,
      "getError": 3945,
      "uring": 3946,
      "edType": 3947,
      "addChild": 3948,
      "ffic": 3949,
      "Devices": 3950,
      "cheme": 3951,
      "Ġlifecycle": 3952,
      "Ġspecified": 3953,
      "\"));": 3954,
      "ention": 3955,
      "Ġtemp": 3956,
      "getRequest": 3957,
      "getProperty": 3958,
      "getDevice": 3959,
      "left": 3960,
      "Ġday": 3961,
      "Ġlat": 3962,
      "getDec": 3963,
      "errors": 3964,
      "utableRoaringBitmap": 3965,
      "DeliveryStream": 3966,
      "uggestedFix": 3967,
      "ĠFILTER": 3968,
      "Am": 3969,
      "LEN": 3970,
      "Tun": 3971,
      "bstract": 3972,
      "cision": 3973,
      "host": 3974,
      "lang": 3975,
      "ĠTIME": 3976,
      "Ġzone": 3977,
      "allow": 3978,
      "getArn": 3979,
      "ilen": 3980,
      "orted": 3981,
      "vided": 3982,
      "ĠMessage": 3983,
      "Detect": 3984,
      "IdentityProvider": 3985,
      "Ġasync": 3986,
      "matcher": 3987,
      "Assignment": 3988,
      "ceptors": 3989,
      "Ġfactory": 3990,
      "Servlet": 3991,
      "KER": 3992,
      "hook": 3993,
      "ose": 3994,
      "other": 3995,
      "schedule": 3996,
      "getEnd": 3997,
      "getOutput": 3998,
      "Ġnumeric": 3999,
      "estr": 4000,
      "ĠSE": 4001,
      "Ġdirectory": 4002,
      "ĠDATA": 4003,
      "ĠTH": 4004,
      "Timestamp": 4005,
      "reserved": 4006,
      "Admin": 4007,
      "ĠVer": 4008,
      "Ġdefinition": 4009,
      "Scriptable": 4010,
      "msgs": 4011,
      "estinations": 4012,
      "Points": 4013,
      "Ġconfiguration": 4014,
      "Ġassert": 4015,
      "Phr": 4016,
      "Ġapply": 4017,
      "HA": 4018,
      "Hook": 4019,
      "Sig": 4020,
      "send": 4021,
      "Ġperiod": 4022,
      "lip": 4023,
      "collect": 4024,
      "RequestMarshaller": 4025,
      "Ġway": 4026,
      "ĠDI": 4027,
      "Ġexec": 4028,
      "Accept": 4029,
      "illing": 4030,
      "oft": 4031,
      "AND": 4032,
      "ĉĉĉĉĉĉ": 4033,
      "getCreation": 4034,
      "anged": 4035,
      "Ġimport": 4036,
      "ĠCOMP": 4037,
      "Ġconnection": 4038,
      "culate": 4039,
      "utomationExecution": 4040,
      "SECONDS": 4041,
      "ĠAttrib": 4042,
      "PRI": 4043,
      "Sequence": 4044,
      "enter": 4045,
      "Ġcriteria": 4046,
      "ĠnewValue": 4047,
      "chunk": 4048,
      "ĠPAR": 4049,
      "otal": 4050,
      "GroupsRequest": 4051,
      "InstanceId": 4052,
      "ential": 4053,
      "Updated": 4054,
      "ighting": 4055,
      "Encoding": 4056,
      "Binding": 4057,
      "ILI": 4058,
      "Ignore": 4059,
      "Socket": 4060,
      "ĠContainer": 4061,
      "Regex": 4062,
      "Replica": 4063,
      "Ġsig": 4064,
      "Ġtop": 4065,
      "ĠSUB": 4066,
      "Ġstatus": 4067,
      "ĠDe": 4068,
      "range": 4069,
      "JobsRequest": 4070,
      "UTC": 4071,
      "START": 4072,
      "ĠWx": 4073,
      "ĠCREATION": 4074,
      "ĠASTHelpers": 4075,
      "making": 4076,
      "CATE": 4077,
      "Folder": 4078,
      "Utili": 4079,
      "doc": 4080,
      "Ġpattern": 4081,
      "ĠProto": 4082,
      "Ġrequired": 4083,
      "clone": 4084,
      "component": 4085,
      "Entities": 4086,
      "entrySet": 4087,
      "Graphics": 4088,
      "impleName": 4089,
      "ĠASSIGN": 4090,
      "namespace": 4091,
      "virtual": 4092,
      "CRYP": 4093,
      "Rol": 4094,
      "bits": 4095,
      "iol": 4096,
      "trim": 4097,
      "qui": 4098,
      "Regist": 4099,
      "Ġbar": 4100,
      "LIST": 4101,
      "ATT": 4102,
      "Ġwhere": 4103,
      "SnapshotRequest": 4104,
      "PublicKey": 4105,
      "Ġconstructor": 4106,
      "Deleg": 4107,
      "])": 4108,
      "failed": 4109,
      "ness": 4110,
      "Ġnow": 4111,
      "Ġmo": 4112,
      "ĠgetChronology": 4113,
      "Ġexisting": 4114,
      "Attr": 4115,
      "Complete": 4116,
      "oriz": 4117,
      "Transfer": 4118,
      "Ġunit": 4119,
      "Connections": 4120,
      "Ġprevious": 4121,
      "Frame": 4122,
      "ĠProposal": 4123,
      "ĠJsonNode": 4124,
      "oip": 4125,
      "asList": 4126,
      "amily": 4127,
      "agments": 4128,
      "Ġfire": 4129,
      "ERO": 4130,
      "ToDelete": 4131,
      "ĠCLI": 4132,
      "Ġred": 4133,
      "tinu": 4134,
      "TAIL": 4135,
      "ĠBase": 4136,
      "Ġip": 4137,
      "Disassociate": 4138,
      "eregister": 4139,
      "Restore": 4140,
      "Ġverify": 4141,
      "Blank": 4142,
      "Co": 4143,
      "Counter": 4144,
      "Java": 4145,
      "Off": 4146,
      "getTask": 4147,
      "getService": 4148,
      "entries": 4149,
      "status": 4150,
      "ilation": 4151,
      "accept": 4152,
      "verage": 4153,
      "stand": 4154,
      "Ġowner": 4155,
      "ĠCode": 4156,
      "Ġreset": 4157,
      "Dev": 4158,
      "Ġ16": 4159,
      "TasksRequest": 4160,
      "FILE": 4161,
      "FormatException": 4162,
      "Workteam": 4163,
      "Decimal": 4164,
      "LocalMillis": 4165,
      "DocInfo": 4166,
      "Ġchaincode": 4167,
      "MILLI": 4168,
      "Support": 4169,
      "iSC": 4170,
      "lin": 4171,
      "utdown": 4172,
      "Ġfloat": 4173,
      "igration": 4174,
      "EventsRequest": 4175,
      "Completed": 4176,
      "formance": 4177,
      "TERN": 4178,
      "Shard": 4179,
      "Modifier": 4180,
      "utoScaling": 4181,
      "eedback": 4182,
      "ELD": 4183,
      "DocToken": 4184,
      "Ġopen": 4185,
      "ĠhighLowContainer": 4186,
      "Traversal": 4187,
      "Ġselect": 4188,
      "ĠAttribute": 4189,
      "ILITY": 4190,
      "iSCSI": 4191,
      "Syn": 4192,
      "],": 4193,
      "fl": 4194,
      "xml": 4195,
      "Ġact": 4196,
      "getState": 4197,
      "getInt": 4198,
      "Recei": 4199,
      "Ġtotal": 4200,
      "ĠDis": 4201,
      "ffili": 4202,
      "indings": 4203,
      "ĠLIM": 4204,
      "usted": 4205,
      "getSh": 4206,
      "prop": 4207,
      "Faces": 4208,
      "getDis": 4209,
      "LAY": 4210,
      "Peering": 4211,
      "incipals": 4212,
      "Authorization": 4213,
      "Ġprint": 4214,
      "Deleted": 4215,
      "ĠLIMIT": 4216,
      ".\",": 4217,
      "Cate": 4218,
      "Calendar": 4219,
      "Send": 4220,
      "cp": 4221,
      "member": 4222,
      "ton": 4223,
      "amount": 4224,
      "Program": 4225,
      "Ġstep": 4226,
      "vide": 4227,
      "TAG": 4228,
      "continue": 4229,
      "Serial": 4230,
      "ResponseRequest": 4231,
      "Started": 4232,
      "Short": 4233,
      "Distance": 4234,
      "ĠSTART": 4235,
      "Align": 4236,
      "ReservedInstances": 4237,
      "ĠAUTH": 4238,
      "PATH": 4239,
      "ampling": 4240,
      "ilename": 4241,
      "CY": 4242,
      "Certificates": 4243,
      "Di": 4244,
      "FE": 4245,
      "Gu": 4246,
      "Tup": 4247,
      "WID": 4248,
      "eNotification": 4249,
      "lated": 4250,
      "session": 4251,
      "ĠStream": 4252,
      "isP": 4253,
      "INATION": 4254,
      "Ġem": 4255,
      "Ġcurr": 4256,
      "ective": 4257,
      "apply": 4258,
      "Ġrecord": 4259,
      "Getter": 4260,
      "VersionsRequest": 4261,
      "Ġstatement": 4262,
      "aintenanceWindow": 4263,
      "PROPER": 4264,
      "ĠENotificationImpl": 4265,
      "eNotificationRequired": 4266,
      "rest": 4267,
      "safe": 4268,
      "ĠCheck": 4269,
      "Ġpeers": 4270,
      "Exists": 4271,
      "Stroke": 4272,
      "InternetGateway": 4273,
      "getMethod": 4274,
      "NodeUtil": 4275,
      "Annot": 4276,
      "Ġmatches": 4277,
      "copes": 4278,
      "COUNTID": 4279,
      "Aggregate": 4280,
      "queue": 4281,
      "Clusters": 4282,
      "porter": 4283,
      "MPLATE": 4284,
      "Bot": 4285,
      "Ec": 4286,
      "FAC": 4287,
      "Ob": 4288,
      "Owner": 4289,
      "eration": 4290,
      "Ġtable": 4291,
      "atures": 4292,
      "getContext": 4293,
      "getCode": 4294,
      "getKind": 4295,
      "getCreated": 4296,
      "Ġmark": 4297,
      "Ġmetric": 4298,
      "ayment": 4299,
      "GroupName": 4300,
      "LETE": 4301,
      "Altern": 4302,
      "Interrup": 4303,
      "udWatch": 4304,
      "CHED": 4305,
      "Partial": 4306,
      "Ġprefix": 4307,
      "Invit": 4308,
      "BackupPlan": 4309,
      "ĠByteArray": 4310,
      "Vertex": 4311,
      "Cl": 4312,
      "Eff": 4313,
      "Native": 4314,
      "Priority": 4315,
      "global": 4316,
      "rc": 4317,
      "render": 4318,
      "sible": 4319,
      "tri": 4320,
      "ways": 4321,
      "ĠRoaringBitmap": 4322,
      "issing": 4323,
      "peer": 4324,
      "ĠSuggestedFix": 4325,
      "Ġ\".": 4326,
      "uplic": 4327,
      "ecked": 4328,
      "ĠVER": 4329,
      "UTF": 4330,
      "Structure": 4331,
      "Discovery": 4332,
      "ĠXML": 4333,
      "Ġround": 4334,
      "unchecked": 4335,
      "Ġheader": 4336,
      "Ġclazz": 4337,
      "Ġcfw": 4338,
      "template": 4339,
      "CUR": 4340,
      "IES": 4341,
      "UME": 4342,
      "fac": 4343,
      "ish": 4344,
      "pu": 4345,
      "sBy": 4346,
      "security": 4347,
      "encode": 4348,
      "shift": 4349,
      "olume": 4350,
      "ERTIFI": 4351,
      "Ġdif": 4352,
      "Ġhb": 4353,
      "Added": 4354,
      "Ġaddress": 4355,
      "++]": 4356,
      "getLimit": 4357,
      "Ġchildren": 4358,
      "getTitle": 4359,
      "FailedEventAttributes": 4360,
      "PatchBaseline": 4361,
      "azy": 4362,
      "LaunchTemplate": 4363,
      "demixUtils": 4364,
      "Spe": 4365,
      "do": 4366,
      "eps": 4367,
      "Ġ\"'": 4368,
      "Objects": 4369,
      "android": 4370,
      "Timeout": 4371,
      "ĠVariable": 4372,
      "Ġglobal": 4373,
      "itiate": 4374,
      "ĠTARGET": 4375,
      "ResourcesRequest": 4376,
      "ADD": 4377,
      "Ġmaybe": 4378,
      "Digits": 4379,
      "ĠasyncHandler": 4380,
      "Alignment": 4381,
      "MAR": 4382,
      "Purchase": 4383,
      "Tables": 4384,
      "history": 4385,
      "mt": 4386,
      "make": 4387,
      "scaling": 4388,
      "ech": 4389,
      "activity": 4390,
      "aybe": 4391,
      "ects": 4392,
      "ExecutionRequest": 4393,
      "ĠĠĠĠĠĠĠĠĠĠĠĠĠĠĠĠĠĠĠĠĠ": 4394,
      "ĠBigInteger": 4395,
      "obot": 4396,
      "ANCE": 4397,
      "Ġ'\"": 4398,
      "VISION": 4399,
      "Ġcontains": 4400,
      "PROP": 4401,
      "CODES": 4402,
      "Ġpoint": 4403,
      "argetMetaDef": 4404,
      "Ġcommand": 4405,
      "\":": 4406,
      "Predic": 4407,
      "Tls": 4408,
      "Tick": 4409,
      "dap": 4410,
      "pings": 4411,
      "ĠEx": 4412,
      "ĠResource": 4413,
      "Ġannot": 4414,
      "getParameter": 4415,
      "getLog": 4416,
      "Ġthread": 4417,
      "ids": 4418,
      "Responses": 4419,
      "Tool": 4420,
      "Ġreference": 4421,
      "TIONS": 4422,
      "constr": 4423,
      "Compute": 4424,
      "ATURE": 4425,
      "Modified": 4426,
      "ĠTypeDescription": 4427,
      "Delay": 4428,
      "Warning": 4429,
      "STRING": 4430,
      "ottomNavigation": 4431,
      "yperParameterTun": 4432,
      ".<": 4433,
      "Cred": 4434,
      "GTH": 4435,
      "MM": 4436,
      "can": 4437,
      "graph": 4438,
      "present": 4439,
      "width": 4440,
      "INFO": 4441,
      "otstr": 4442,
      "ĠDescription": 4443,
      "REQUEST": 4444,
      "ignature": 4445,
      "provider": 4446,
      "ilities": 4447,
      "parameters": 4448,
      "Retention": 4449,
      "Qualified": 4450,
      "WORD": 4451,
      "12": 4452,
      "Codes": 4453,
      "DK": 4454,
      "PI": 4455,
      "Protocol": 4456,
      "Pane": 4457,
      "WAY": 4458,
      "uil": 4459,
      "onical": 4460,
      "getEx": 4461,
      "ĠSEC": 4462,
      "ĠthisObj": 4463,
      "Ġman": 4464,
      "umed": 4465,
      "ĠsetTags": 4466,
      "ConfigRule": 4467,
      "Executions": 4468,
      ")).": 4469,
      "LEV": 4470,
      "Detach": 4471,
      "Images": 4472,
      "getDomain": 4473,
      "Platform": 4474,
      "ĠcheckNotNull": 4475,
      "Ġparser": 4476,
      "Ġorg": 4477,
      "Ġupload": 4478,
      "Constraints": 4479,
      "ĠCREATED": 4480,
      "ffiliation": 4481,
      "otstrap": 4482,
      "09": 4483,
      "bp": 4484,
      "oper": 4485,
      "etwe": 4486,
      "Initial": 4487,
      "Ġsymbol": 4488,
      "////": 4489,
      "ĠPREFER": 4490,
      "Ġdat": 4491,
      "Profiles": 4492,
      "ToString": 4493,
      "ĠDynamoDB": 4494,
      "Ġexpected": 4495,
      "Ġregion": 4496,
      "TASK": 4497,
      "plor": 4498,
      "STINATION": 4499,
      "ClassLoader": 4500,
      "exp": 4501,
      "Matchmaking": 4502,
      "RESOURCE": 4503,
      "ServiceRequest": 4504,
      "MAGE": 4505,
      "ĠReference": 4506,
      "********": 4507,
      "detach": 4508,
      "ANGU": 4509,
      "havior": 4510,
      "ERTIFICATE": 4511,
      "LEVEL": 4512,
      "etween": 4513,
      ">)": 4514,
      "Dir": 4515,
      "Dns": 4516,
      "ib": 4517,
      "Ġlocation": 4518,
      "route": 4519,
      "getObject": 4520,
      "getByte": 4521,
      "Ġsup": 4522,
      "Ġfsw": 4523,
      "assign": 4524,
      "Ġdes": 4525,
      "KeyPair": 4526,
      "TARN": 4527,
      "coin": 4528,
      "STER": 4529,
      "InfoList": 4530,
      "Endor": 4531,
      "Ġ(((": 4532,
      "Premis": 4533,
      "AccountId": 4534,
      "Ġrole": 4535,
      "OperationParam": 4536,
      "Ġerrors": 4537,
      "Propag": 4538,
      "everity": 4539,
      "orrect": 4540,
      "styleable": 4541,
      "Phrases": 4542,
      "standard": 4543,
      "ANGUAGE": 4544,
      "Premises": 4545,
      "Ele": 4546,
      "Ge": 4547,
      "Moni": 4548,
      "Predicate": 4549,
      "Robot": 4550,
      "Section": 4551,
      "Side": 4552,
      "cancel": 4553,
      "df": 4554,
      "jo": 4555,
      "schema": 4556,
      "wo": 4557,
      "ince": 4558,
      "imation": 4559,
      "ĠJC": 4560,
      "typ": 4561,
      "IDE": 4562,
      "sertion": 4563,
      "Activ": 4564,
      "[])": 4565,
      "LAB": 4566,
      "board": 4567,
      "Invok": 4568,
      "Ġfields": 4569,
      "Lower": 4570,
      "ĠColor": 4571,
      "uffix": 4572,
      "ĠAddress": 4573,
      "TAILS": 4574,
      "Bits": 4575,
      "miter": 4576,
      "tlement": 4577,
      "vpc": 4578,
      "Ġqu": 4579,
      "getContent": 4580,
      "Red": 4581,
      "Ġcustom": 4582,
      "api": 4583,
      "Locator": 4584,
      "Additional": 4585,
      "FACE": 4586,
      "DomainRequest": 4587,
      "Disable": 4588,
      "ĠTASK": 4589,
      "ĠOUT": 4590,
      "Attempts": 4591,
      "PRESSION": 4592,
      "estruct": 4593,
      "99": 4594,
      "Finding": 4595,
      "Prototype": 4596,
      "USE": 4597,
      "ds": 4598,
      "month": 4599,
      "vation": 4600,
      "Ġtri": 4601,
      "decl": 4602,
      "Ġbundle": 4603,
      "Ġmerge": 4604,
      "ĠData": 4605,
      "NodeId": 4606,
      "getSymbol": 4607,
      "ĠVI": 4608,
      "FIED": 4609,
      "SummaryList": 4610,
      "getCurrent": 4611,
      "Ġenable": 4612,
      "RIBUTE": 4613,
      "logError": 4614,
      "Extended": 4615,
      "ACKUP": 4616,
      "RENT": 4617,
      "LENGTH": 4618,
      "Could": 4619,
      "di": 4620,
      "sl": 4621,
      "getAttribute": 4622,
      "Ġrad": 4623,
      "ersist": 4624,
      "Ġreserved": 4625,
      "ConfigurationSet": 4626,
      "ResourceShare": 4627,
      "ALL": 4628,
      "Plugin": 4629,
      "DBInstance": 4630,
      "Payload": 4631,
      "================================": 4632,
      "Variables": 4633,
      "card": 4634,
      "lative": 4635,
      "ĠInputStream": 4636,
      "getK": 4637,
      "quires": 4638,
      "Ġpub": 4639,
      "icated": 4640,
      "ĠPre": 4641,
      "META": 4642,
      "irm": 4643,
      "DataS": 4644,
      "THOD": 4645,
      "AppRequest": 4646,
      "Ġlimit": 4647,
      "MODI": 4648,
      "agnostic": 4649,
      "addChildTo": 4650,
      "ĠVERSION": 4651,
      "plorer": 4652,
      "estructuring": 4653,
      "Dynamic": 4654,
      "Fp": 4655,
      "Ms": 4656,
      "UTE": 4657,
      "pare": 4658,
      "rar": 4659,
      "invoke": 4660,
      "livery": 4661,
      "rice": 4662,
      "Ġwx": 4663,
      "setValue": 4664,
      "ArrayContainer": 4665,
      "ĠAc": 4666,
      "Depend": 4667,
      "ĠEdge": 4668,
      "Processing": 4669,
      "Volumes": 4670,
      "TTRIBUTES": 4671,
      "Ġtransform": 4672,
      "ĠDurationFieldType": 4673,
      "ĠProposalException": 4674,
      "CRE": 4675,
      "Dash": 4676,
      "SPA": 4677,
      "Tx": 4678,
      "bed": 4679,
      "len": 4680,
      "ollow": 4681,
      "ĠnewValues": 4682,
      "ĠSOURCE": 4683,
      "Ġbit": 4684,
      "Ġinvalid": 4685,
      "ell": 4686,
      "stanti": 4687,
      "ExecutionTask": 4688,
      "Mappings": 4689,
      "ird": 4690,
      "ĠMutableRoaringBitmap": 4691,
      "ĠNE": 4692,
      "ĠNative": 4693,
      "expr": 4694,
      "Channels": 4695,
      "MetricData": 4696,
      "ĠmaxWidth": 4697,
      "Flows": 4698,
      "come": 4699,
      "ookie": 4700,
      "eks": 4701,
      "Memberships": 4702,
      "Ġallowed": 4703,
      "CLU": 4704,
      "Sl": 4705,
      "Success": 4706,
      "bot": 4707,
      "ities": 4708,
      "section": 4709,
      "sym": 4710,
      "sql": 4711,
      "tax": 4712,
      "environment": 4713,
      "olute": 4714,
      "ulk": 4715,
      "seg": 4716,
      "Unknown": 4717,
      "ĠJob": 4718,
      "ĠgetInstance": 4719,
      "ĠĠĠĠĠĠĠĠĠĠĠĠĠĠĠĠĠĠ": 4720,
      "TEX": 4721,
      "ORITY": 4722,
      "ĠMO": 4723,
      "keySet": 4724,
      "MethodInvocation": 4725,
      "Ġensure": 4726,
      "Ġposition": 4727,
      "closing": 4728,
      "byteBuddy": 4729,
      "split": 4730,
      "ĠDOMAIN": 4731,
      "CHEMA": 4732,
      "WIDTH": 4733,
      "NOT": 4734,
      "PK": 4735,
      "Rate": 4736,
      "cur": 4737,
      "greg": 4738,
      "ias": 4739,
      "ou": 4740,
      "poll": 4741,
      "transaction": 4742,
      "esis": 4743,
      "tivi": 4744,
      "getDeployment": 4745,
      "getChildren": 4746,
      "Ġtoo": 4747,
      "logger": 4748,
      "ERATION": 4749,
      "KeyName": 4750,
      "ĠexecutePut": 4751,
      "elem": 4752,
      "Lookup": 4753,
      "ĠFOR": 4754,
      "Ġprofile": 4755,
      "DESCRIPTION": 4756,
      "Room": 4757,
      "Interceptor": 4758,
      "Ġlistener": 4759,
      "Ipv": 4760,
      "Users": 4761,
      "NetworkInterface": 4762,
      "QUAL": 4763,
      "ĠModify": 4764,
      "NotebookInstance": 4765,
      "tivities": 4766,
      "Cause": 4767,
      "Illegal": 4768,
      "PON": 4769,
      "Render": 4770,
      "RAY": 4771,
      "Temp": 4772,
      "fleet": 4773,
      "ll": 4774,
      "pipeline": 4775,
      "Ġast": 4776,
      "ĠChronology": 4777,
      "getV": 4778,
      "Ġcle": 4779,
      "ites": 4780,
      "ĠSymbol": 4781,
      "endor": 4782,
      "ExecutorService": 4783,
      "IDS": 4784,
      "ĠwithTags": 4785,
      "Advisor": 4786,
      "DEVEN": 4787,
      "TextView": 4788,
      "compiler": 4789,
      "compatible": 4790,
      "ScriptType": 4791,
      "theEObject": 4792,
      "Ġxml": 4793,
      "partition": 4794,
      "BitmapContainer": 4795,
      "ApiKey": 4796,
      "SearchParam": 4797,
      "OBJECT": 4798,
      "Flag": 4799,
      "ORMAL": 4800,
      "ĠBuffered": 4801,
      "Roles": 4802,
      "quival": 4803,
      "Lim": 4804,
      "Media": 4805,
      "sis": 4806,
      "vable": 4807,
      "ern": 4808,
      "root": 4809,
      "ĠSearch": 4810,
      "(\"%": 4811,
      "Cond": 4812,
      "ableConcept": 4813,
      "Encoded": 4814,
      "usiness": 4815,
      "oreType": 4816,
      "Ġremoved": 4817,
      "ResourceType": 4818,
      "Tokens": 4819,
      "Routes": 4820,
      "Recip": 4821,
      "Party": 4822,
      "ĠSTATE": 4823,
      "Ġcallback": 4824,
      "AuthorizerRequest": 4825,
      "ENTITY": 4826,
      "SettingsRequest": 4827,
      "PlayerSession": 4828,
      "alysis": 4829,
      "oftware": 4830,
      "iolation": 4831,
      "Egress": 4832,
      "Hex": 4833,
      "MFA": 4834,
      "Page": 4835,
      "Sql": 4836,
      "VCache": 4837,
      "day": 4838,
      "non": 4839,
      "getWidth": 4840,
      "isDebug": 4841,
      "ifest": 4842,
      "ecess": 4843,
      "ecret": 4844,
      "Include": 4845,
      "TypeEnum": 4846,
      "Arch": 4847,
      "ĠItem": 4848,
      "tings": 4849,
      "Ġhapp": 4850,
      "Ġ-=": 4851,
      "Indexed": 4852,
      "ĠView": 4853,
      "FIL": 4854,
      "Ġshift": 4855,
      "Ġenclosing": 4856,
      "Ġsubscri": 4857,
      "ApiId": 4858,
      "antLanguage": 4859,
      "Ġgenerate": 4860,
      "ĠROLEARN": 4861,
      "moteAccess": 4862,
      "ominantLanguage": 4863,
      "LINE": 4864,
      "Raw": 4865,
      "Suggestion": 4866,
      "join": 4867,
      "Ġ7": 4868,
      "ĠRun": 4869,
      "ĠStart": 4870,
      "limit": 4871,
      "Inference": 4872,
      "Inverse": 4873,
      "Install": 4874,
      "ully": 4875,
      "Ġfuture": 4876,
      "active": 4877,
      "Ġ\";": 4878,
      "Ġmode": 4879,
      "ĠDIS": 4880,
      "used": 4881,
      "ObjectType": 4882,
      "ConfigurationException": 4883,
      "TimeUnit": 4884,
      "StateChange": 4885,
      "OfYear": 4886,
      "CHECK": 4887,
      "Ġshape": 4888,
      "Ġendpoint": 4889,
      "ĠOB": 4890,
      "ProposalRequest": 4891,
      "ĠAPI": 4892,
      "HealthCheck": 4893,
      "Ġlower": 4894,
      "DetectionJobProperties": 4895,
      "Recognizer": 4896,
      "bytes": 4897,
      "Registration": 4898,
      "MILLIS": 4899,
      "ustedAdvisor": 4900,
      "CAP": 4901,
      "GEN": 4902,
      "cardinality": 4903,
      "twork": 4904,
      "variable": 4905,
      "Ġavailable": 4906,
      "etch": 4907,
      "Ġthem": 4908,
      "Ġcould": 4909,
      "Ġsegment": 4910,
      "ListEntry": 4911,
      "ĠParam": 4912,
      "ĠdB": 4913,
      "Ġdomain": 4914,
      "ĠJava": 4915,
      "ĠAL": 4916,
      "apping": 4917,
      "ACITY": 4918,
      "Prefixes": 4919,
      "ĠMethodDescription": 4920,
      "module": 4921,
      "AvailabilityZones": 4922,
      "Ġbitmaps": 4923,
      "rieve": 4924,
      "ĠCLIENT": 4925,
      "isDebugEnabled": 4926,
      "20": 4927,
      "AUT": 4928,
      "Family": 4929,
      "Gpu": 4930,
      "Patient": 4931,
      "Single": 4932,
      "gin": 4933,
      "lta": 4934,
      "pack": 4935,
      "ĠCon": 4936,
      "insert": 4937,
      "atGateway": 4938,
      "relationalDatabase": 4939,
      "Ġport": 4940,
      "lifecycle": 4941,
      "Register": 4942,
      "Ġcancel": 4943,
      "Ġsecurity": 4944,
      "INDEX": 4945,
      "(\"-": 4946,
      "Listeners": 4947,
      "NodeIds": 4948,
      "ĠAp": 4949,
      "ParameterGroups": 4950,
      "STAMP": 4951,
      "ĠScriptException": 4952,
      "Trail": 4953,
      "ĠThrowable": 4954,
      "SHA": 4955,
      "ĠCONFIG": 4956,
      "disassociate": 4957,
      "----------------": 4958,
      "SpotInstanceRequest": 4959,
      "Credit": 4960,
      "Face": 4961,
      "Hsm": 4962,
      "eNotify": 4963,
      "ique": 4964,
      "md": 4965,
      "pending": 4966,
      "ĠEnum": 4967,
      "atal": 4968,
      "getIndex": 4969,
      "getExpression": 4970,
      "toByteArray": 4971,
      "lease": 4972,
      "identity": 4973,
      "Ġduration": 4974,
      "Upgrade": 4975,
      "ĠNetwork": 4976,
      "entiment": 4977,
      "Apns": 4978,
      "SELE": 4979,
      "Rout": 4980,
      "formed": 4981,
      "position": 4982,
      "mentsFor": 4983,
      "Preview": 4984,
      "HashMap": 4985,
      "Ġactive": 4986,
      "connection": 4987,
      "Customer": 4988,
      "Ġusing": 4989,
      "ElasticsearchInstance": 4990,
      "Deletion": 4991,
      "ĠAUTO": 4992,
      "Grant": 4993,
      "original": 4994,
      "ecessary": 4995,
      "Days": 4996,
      "GOR": 4997,
      "Messages": 4998,
      "RAN": 4999,
      "SUB": 5000,
      "rs": 5001,
      "getG": 5002,
      "Replace": 5003,
      "Ind": 5004,
      "Injection": 5005,
      "idd": 5006,
      "ĠST": 5007,
      "ĠStop": 5008,
      "access": 5009,
      "ĠJs": 5010,
      "ĠDi": 5011,
      "Ġob": 5012,
      "andsh": 5013,
      "Loop": 5014,
      "createEAttribute": 5015,
      "Services": 5016,
      "ĠFor": 5017,
      "UNK": 5018,
      "Threshold": 5019,
      "MatchTup": 5020,
      "ATEWAY": 5021,
      "ĠINPUT": 5022,
      "VpcPeering": 5023,
      "archy": 5024,
      "initEAttribute": 5025,
      "MatchSetRequest": 5026,
      "Ġvertex": 5027,
      "FeatureMap": 5028,
      "UserPoolClient": 5029,
      "NotFoundException": 5030,
      "TileEvent": 5031,
      "FSFileShare": 5032,
      "Tracking": 5033,
      "yperParameterTuningJob": 5034,
      "Are": 5035,
      "Billing": 5036,
      "Fhir": 5037,
      "Iam": 5038,
      "NORMAL": 5039,
      "Row": 5040,
      "aN": 5041,
      "sv": 5042,
      "isName": 5043,
      "Ġnetwork": 5044,
      "ĠSp": 5045,
      "Ġview": 5046,
      "acy": 5047,
      "Reset": 5048,
      "Ġregist": 5049,
      "ĠAs": 5050,
      "InstanceProfile": 5051,
      "TargetRequest": 5052,
      "otifications": 5053,
      "compliance": 5054,
      "Ġextended": 5055,
      "AssociationRequest": 5056,
      "Ġroute": 5057,
      "DAY": 5058,
      "ĠobjSec": 5059,
      "Ġcharacter": 5060,
      "TTP": 5061,
      "getContainerAtIndex": 5062,
      "ĠPREFERRED": 5063,
      "',": 5064,
      "(!": 5065,
      "JOB": 5066,
      "Voip": 5067,
      "WA": 5068,
      "fn": 5069,
      "jav": 5070,
      "layer": 5071,
      "Ġ...": 5072,
      "ĠUtil": 5073,
      "Ġuri": 5074,
      "ceive": 5075,
      "idence": 5076,
      "Ġsm": 5077,
      "Ġword": 5078,
      "peri": 5079,
      "TAIN": 5080,
      "Loaded": 5081,
      "Upper": 5082,
      "Acl": 5083,
      "Ġ(!(": 5084,
      "Authentication": 5085,
      "MAP": 5086,
      "boot": 5087,
      "POOL": 5088,
      "ĠIntegerDt": 5089,
      "inesis": 5090,
      "Multipart": 5091,
      "covered": 5092,
      "Ġzero": 5093,
      "Numbers": 5094,
      "PubKey": 5095,
      "getDecl": 5096,
      "ServletRequest": 5097,
      "uiltin": 5098,
      "types": 5099,
      "Limits": 5100,
      "Aware": 5101,
      "Book": 5102,
      "Separator": 5103,
      "VAR": 5104,
      "side": 5105,
      "ĠY": 5106,
      "ĠOR": 5107,
      "erged": 5108,
      "argument": 5109,
      "region": 5110,
      "getTag": 5111,
      "getPolicy": 5112,
      "icesRequest": 5113,
      "getMillis": 5114,
      "eft": 5115,
      "ock": 5116,
      "ĠĠĠĠĠĠĠĠĠĠĠĠĠĠĠĠĠĠĠĠ": 5117,
      "Ġregistry": 5118,
      "Ġconverter": 5119,
      "ARD": 5120,
      "Containers": 5121,
      "akes": 5122,
      "project": 5123,
      "clud": 5124,
      "Counts": 5125,
      "Recomm": 5126,
      "ĠGraph": 5127,
      "PROX": 5128,
      "Managed": 5129,
      "currentTime": 5130,
      "Ġ32": 5131,
      "Ġinterface": 5132,
      "DetectionJobRequest": 5133,
      "UsagePlan": 5134,
      "copyOf": 5135,
      "going": 5136,
      "XMLType": 5137,
      "WORK": 5138,
      "getDocumentRoot": 5139,
      "CONTROL": 5140,
      "moteAccessSession": 5141,
      "Ips": 5142,
      "PL": 5143,
      "TS": 5144,
      "Void": 5145,
      "caption": 5146,
      "ead": 5147,
      "lay": 5148,
      "stit": 5149,
      "successful": 5150,
      "inish": 5151,
      "road": 5152,
      "getBytes": 5153,
      "Ġedges": 5154,
      "Ġrs": 5155,
      "Ġstore": 5156,
      "Ġoption": 5157,
      "Ġrelation": 5158,
      "Classic": 5159,
      "exists": 5160,
      "tick": 5161,
      "getCount": 5162,
      "getCertificate": 5163,
      "FunctionType": 5164,
      "CONNEC": 5165,
      "TagsFor": 5166,
      "TrainingJob": 5167,
      "IpAddress": 5168,
      "DeploymentRequest": 5169,
      "OLUME": 5170,
      "entifier": 5171,
      "Verification": 5172,
      "LevelMetrics": 5173,
      "ChangeTo": 5174,
      "spaces": 5175,
      "Ġupper": 5176,
      "ComplianceBy": 5177,
      "chrono": 5178,
      "parseInt": 5179,
      "ENTIFIER": 5180,
      "goog": 5181,
      "RetryStrategy": 5182,
      "LoggingOption": 5183,
      "WebACL": 5184,
      "arraycopy": 5185,
      "enarioParameters": 5186,
      "clusive": 5187,
      "irdParty": 5188,
      "FLOW": 5189,
      "HS": 5190,
      "Over": 5191,
      "PORT": 5192,
      "aP": 5193,
      "db": 5194,
      "sig": 5195,
      "ĠError": 5196,
      "getFilter": 5197,
      "isto": 5198,
      "isNull": 5199,
      "lig": 5200,
      "Ġec": 5201,
      "Ġsystem": 5202,
      "Ġslot": 5203,
      "Ġfiles": 5204,
      "Ġbound": 5205,
      "Ġchart": 5206,
      "Ġchange": 5207,
      "Ġdeployment": 5208,
      "ĠFixed": 5209,
      "SIBLE": 5210,
      "getSimpleName": 5211,
      "Applic": 5212,
      "Implicit": 5213,
      "DEFIN": 5214,
      "PolicyResult": 5215,
      "LIT": 5216,
      "opper": 5217,
      "ChannelResponse": 5218,
      "ĠDEVICE": 5219,
      "Ġalways": 5220,
      "uggest": 5221,
      "AliasRequest": 5222,
      "ĠrangeEnd": 5223,
      "rypter": 5224,
      "IZATION": 5225,
      "conditions": 5226,
      "ierarchy": 5227,
      "historyEvent": 5228,
      "ustedAdvisorCheck": 5229,
      "atalog": 5230,
      "Recommend": 5231,
      "Applications": 5232,
      "Direc": 5233,
      "Desc": 5234,
      "PLO": 5235,
      "Se": 5236,
      "Sym": 5237,
      "UD": 5238,
      "ZERO": 5239,
      "bri": 5240,
      "bit": 5241,
      "fill": 5242,
      "float": 5243,
      "iesRequest": 5244,
      "Ġloc": 5245,
      "Ġattr": 5246,
      "ĠtitleText": 5247,
      "getNode": 5248,
      "Ġnotification": 5249,
      "Ġse": 5250,
      "(\"\\": 5251,
      "unprocessed": 5252,
      "Ġwarn": 5253,
      "Units": 5254,
      "extended": 5255,
      "Ġlhs": 5256,
      "ĠBuild": 5257,
      "ConfigurationsRequest": 5258,
      "achine": 5259,
      "Compilation": 5260,
      "SES": 5261,
      "ANN": 5262,
      "ifications": 5263,
      "Ġ'\\": 5264,
      "ACT": 5265,
      "blem": 5266,
      "Ġ/**": 5267,
      "association": 5268,
      "rimary": 5269,
      "PartRequest": 5270,
      "argetMetaRequest": 5271,
      "Ġactual": 5272,
      "segment": 5273,
      "PLOY": 5274,
      "35": 5275,
      "CT": 5276,
      "Ded": 5277,
      "DIS": 5278,
      "HIR": 5279,
      "bound": 5280,
      "hour": 5281,
      "ius": 5282,
      "main": 5283,
      "vance": 5284,
      "isAssign": 5285,
      "rix": 5286,
      "Ġreturned": 5287,
      "itel": 5288,
      "Ġexport": 5289,
      "ĠTrans": 5290,
      "ails": 5291,
      "ĠMIN": 5292,
      "olicies": 5293,
      "Adjust": 5294,
      "Ġproposal": 5295,
      "getPre": 5296,
      "Ġloop": 5297,
      "RESOL": 5298,
      "open": 5299,
      "LogStream": 5300,
      "ServerGroup": 5301,
      "Decision": 5302,
      "PermissionRequest": 5303,
      "getResourceType": 5304,
      "locale": 5305,
      "<?>)": 5306,
      "ĠDateTimeUtils": 5307,
      "UploadRequest": 5308,
      "children": 5309,
      "Webhook": 5310,
      "ĠPeriodType": 5311,
      "ĠPOLICY": 5312,
      "Interrupted": 5313,
      "icatedIp": 5314,
      "MODIFIED": 5315,
      "itelist": 5316,
      "Crawler": 5317,
      "Pack": 5318,
      "SA": 5319,
      "Total": 5320,
      "iv": 5321,
      "millis": 5322,
      "options": 5323,
      "rad": 5324,
      "sFor": 5325,
      "wise": 5326,
      "ench": 5327,
      "reator": 5328,
      "getChronology": 5329,
      "oly": 5330,
      "Ġthey": 5331,
      "lookup": 5332,
      "TypeMap": 5333,
      "ĠPeer": 5334,
      "ĠDB": 5335,
      "Overrides": 5336,
      "Arrays": 5337,
      "getSecond": 5338,
      "OfDay": 5339,
      "ĠVoid": 5340,
      "Throwable": 5341,
      "getLe": 5342,
      "TableRequest": 5343,
      "RootCause": 5344,
      "Ġinterval": 5345,
      "ĠScriptableObject": 5346,
      "Hosted": 5347,
      "GlobalSecondaryIndex": 5348,
      "ĠDOCUMENT": 5349,
      "IGHT": 5350,
      "ropDown": 5351,
      "INTERFACE": 5352,
      "Publish": 5353,
      "plier": 5354,
      "EnclosingScope": 5355,
      "Approval": 5356,
      "ĠDIREC": 5357,
      "</": 5358,
      "FUNCTION": 5359,
      "duration": 5360,
      "ling": 5361,
      "sort": 5362,
      "vas": 5363,
      "Ġrow": 5364,
      "Ġour": 5365,
      "getUnit": 5366,
      "Reg": 5367,
      "anti": 5368,
      "Ġevalu": 5369,
      "utton": 5370,
      "agent": 5371,
      "select": 5372,
      "Unset": 5373,
      "Timer": 5374,
      "TEMPLATE": 5375,
      "ĠMax": 5376,
      "EventType": 5377,
      "ixel": 5378,
      "ucer": 5379,
      "Charset": 5380,
      "Ġaccount": 5381,
      "ĠByteBuffer": 5382,
      "Verify": 5383,
      "prefix": 5384,
      "Delimiter": 5385,
      "Ġseconds": 5386,
      "ĠModifier": 5387,
      "Traffic": 5388,
      "Ġclose": 5389,
      "FEATURE": 5390,
      "enchmark": 5391,
      "CEN": 5392,
      "CENAME": 5393,
      "Join": 5394,
      "ND": 5395,
      "OAuth": 5396,
      "Preset": 5397,
      "Simple": 5398,
      "SDK": 5399,
      "cut": 5400,
      "launch": 5401,
      "man": 5402,
      "multi": 5403,
      "wrap": 5404,
      "ä¸": 5405,
      "Ġattach": 5406,
      "INVALID": 5407,
      "Ġeach": 5408,
      "Ġcalendar": 5409,
      "Ġcursor": 5410,
      "ĠSend": 5411,
      "abs": 5412,
      "Ġ\"##": 5413,
      "Ġwant": 5414,
      "intValue": 5415,
      "Ġlb": 5416,
      "ĠAuto": 5417,
      "ĠNumber": 5418,
      "getSc": 5419,
      "DETAILS": 5420,
      "InputView": 5421,
      "loadBalancer": 5422,
      "angle": 5423,
      "ĠWOR": 5424,
      "getNumber": 5425,
      "MENTID": 5426,
      "One": 5427,
      "ByteBuffer": 5428,
      "NOWN": 5429,
      "Regions": 5430,
      "ĠACCE": 5431,
      "crement": 5432,
      "getApplicationId": 5433,
      "ĠAPPLICATIONID": 5434,
      "provisioned": 5435,
      "IgnoreCase": 5436,
      "QualifiedName": 5437,
      "ĠOUTPUT": 5438,
      "TEXT": 5439,
      "Has": 5440,
      "Scale": 5441,
      "break": 5442,
      "eatures": 5443,
      "storage": 5444,
      "uce": 5445,
      "getGroup": 5446,
      "getEndpoint": 5447,
      "getFunction": 5448,
      "getImage": 5449,
      "Require": 5450,
      "Ġcredentials": 5451,
      "ĠcoreType": 5452,
      "Ġseparator": 5453,
      "unit": 5454,
      "unlock": 5455,
      "omet": 5456,
      "Ġwould": 5457,
      "emory": 5458,
      "METHOD": 5459,
      "ValueSet": 5460,
      "KeyValue": 5461,
      "Post": 5462,
      "ofData": 5463,
      "clazz": 5464,
      "OnPremises": 5465,
      "MPTY": 5466,
      "BlockDevice": 5467,
      "IpAddresses": 5468,
      "endsWith": 5469,
      "TemplateRequest": 5470,
      "Ġmodify": 5471,
      "ĠDateTimeZone": 5472,
      "Outcome": 5473,
      "Ġlocale": 5474,
      "Organizational": 5475,
      "SPACE": 5476,
      "Ġhappen": 5477,
      "XMLTypePackage": 5478,
      "40": 5479,
      "Coding": 5480,
      "Cardinality": 5481,
      "Holder": 5482,
      "Menu": 5483,
      "Machine": 5484,
      "Pdf": 5485,
      "SOURCE": 5486,
      "Software": 5487,
      "ca": 5488,
      "dig": 5489,
      "ops": 5490,
      "ale": 5491,
      "Ġtest": 5492,
      "req": 5493,
      "Ġproto": 5494,
      "Ġcardinality": 5495,
      "ĠtoIntUnsigned": 5496,
      "Ġinvoke": 5497,
      "addProperty": 5498,
      "Ġgetter": 5499,
      "Ġhost": 5500,
      "Timed": 5501,
      "Compiler": 5502,
      "Ġresults": 5503,
      "Ġ'%": 5504,
      "LOAD": 5505,
      "raft": 5506,
      "Signer": 5507,
      "Documentation": 5508,
      "targetNamespace": 5509,
      "ĠProcess": 5510,
      "RoaringArray": 5511,
      "ProposalResponse": 5512,
      "ideo": 5513,
      "Ġattempt": 5514,
      "Material": 5515,
      "ĠfireTileEvent": 5516,
      "PROPERTY": 5517,
      "CHEDULE": 5518,
      "Geo": 5519,
      "addChildToBack": 5520,
      "itespace": 5521,
      "\"),": 5522,
      "._": 5523,
      "Crypter": 5524,
      "PollingStrategy": 5525,
      "audit": 5526,
      "cached": 5527,
      "notation": 5528,
      "sd": 5529,
      "test": 5530,
      "uite": 5531,
      "tip": 5532,
      "getX": 5533,
      "istic": 5534,
      "Ġcorrect": 5535,
      "Ġsome": 5536,
      "Ġsince": 5537,
      "ĠSI": 5538,
      "ĠSub": 5539,
      "upload": 5540,
      "verify": 5541,
      "ĠCOL": 5542,
      "ĠCERTIFICATE": 5543,
      "READ": 5544,
      "andbox": 5545,
      "ĠAR": 5546,
      "IDER": 5547,
      "ClassName": 5548,
      "listener": 5549,
      "COST": 5550,
      "AttributeValue": 5551,
      "workflow": 5552,
      "ĠRead": 5553,
      "ĠThread": 5554,
      "Ġinputs": 5555,
      "ĠdefaultValue": 5556,
      "Attached": 5557,
      "ĠCONT": 5558,
      "PublicKeys": 5559,
      "Ġdeclared": 5560,
      "ĠACCOUNTID": 5561,
      "Ġinitialize": 5562,
      "PATTERN": 5563,
      "executorService": 5564,
      "TRIC": 5565,
      "ĠMappeableContainer": 5566,
      "ĠAnnotation": 5567,
      "elasticsearch": 5568,
      "dsDb": 5569,
      "CAPACITY": 5570,
      "UNKNOWN": 5571,
      "ChangeToEnclosingScope": 5572,
      "ANNEL": 5573,
      "24": 5574,
      "Aws": 5575,
      "Buff": 5576,
      "Binary": 5577,
      "Card": 5578,
      "PMap": 5579,
      "Tape": 5580,
      "audio": 5581,
      "handler": 5582,
      "proto": 5583,
      "ture": 5584,
      "initial": 5585,
      "getParameters": 5586,
      "Ġeff": 5587,
      "Ġco": 5588,
      "Ġretry": 5589,
      "Ġside": 5590,
      "pear": 5591,
      "Continu": 5592,
      "Ġinstances": 5593,
      "IdList": 5594,
      "ĠPollingStrategy": 5595,
      "imals": 5596,
      "getMod": 5597,
      "Ġdistance": 5598,
      "umb": 5599,
      "ĠCall": 5600,
      "GroupResult": 5601,
      "ĠMo": 5602,
      "Ġelements": 5603,
      "getSize": 5604,
      "DefinitionVersion": 5605,
      "Ġadditional": 5606,
      "compute": 5607,
      "Entitlement": 5608,
      "definition": 5609,
      "Ġpossible": 5610,
      "Minutes": 5611,
      "positories": 5612,
      "COMPO": 5613,
      "ĠLinkedList": 5614,
      "ProjectRequest": 5615,
      "rollment": 5616,
      "CRYPTION": 5617,
      "Receipt": 5618,
      "ĠMaxAttempts": 5619,
      ")=='": 5620,
      "CAC": 5621,
      "VIDER": 5622,
      "ai": 5623,
      "eC": 5624,
      "maintenanceWindow": 5625,
      "xff": 5626,
      "Ġescape": 5627,
      "erm": 5628,
      "ins": 5629,
      "sement": 5630,
      "Ġinstruction": 5631,
      "Prod": 5632,
      "Contract": 5633,
      "Compati": 5634,
      "Alarm": 5635,
      "Ġgiven": 5636,
      "TargetNetwork": 5637,
      "TypesRequest": 5638,
      "getLanguage": 5639,
      "FunctionRequest": 5640,
      "Expressions": 5641,
      "ĠGROUP": 5642,
      "DITION": 5643,
      "AccountRequest": 5644,
      "ĠclassFile": 5645,
      "IsSet": 5646,
      "Conditions": 5647,
      "ĠJsonObject": 5648,
      "Ġdisable": 5649,
      "DistributionTypeEClass": 5650,
      "Ġevents": 5651,
      "Marker": 5652,
      "COLOR": 5653,
      "LUSTER": 5654,
      "BYTES": 5655,
      "TlsCertificate": 5656,
      "Elem": 5657,
      "usinessReport": 5658,
      "Ctor": 5659,
      "Des": 5660,
      "Scheme": 5661,
      "TUR": 5662,
      "link": 5663,
      "sup": 5664,
      "tPMap": 5665,
      "volume": 5666,
      "wn": 5667,
      "Ġce": 5668,
      "ĠResponse": 5669,
      "Ġ64": 5670,
      "Ġpstr": 5671,
      "Ġctx": 5672,
      "Exit": 5673,
      "amtPMap": 5674,
      "stNode": 5675,
      "ĠSimple": 5676,
      "Ġdown": 5677,
      "Choice": 5678,
      "validation": 5679,
      "Ġlaunch": 5680,
      "andid": 5681,
      "Ġ--": 5682,
      "Ġ1000": 5683,
      "getSchema": 5684,
      "axb": 5685,
      "FICATION": 5686,
      "SourceInfo": 5687,
      "STATE": 5688,
      "EXPRESSION": 5689,
      "ClusterSnapshot": 5690,
      "withAc": 5691,
      "DevicePool": 5692,
      "ĠinputStream": 5693,
      "HashSet": 5694,
      "Ġimplementation": 5695,
      "TRUE": 5696,
      "tract": 5697,
      "ĠfileName": 5698,
      "Ġplace": 5699,
      "ĠpropertyName": 5700,
      "gories": 5701,
      "ChaincodeDefinition": 5702,
      "ĠMESSAGE": 5703,
      "ĠService": 5704,
      "Annotations": 5705,
      "DelayStrategy": 5706,
      "quivalent": 5707,
      "ĠFixedDelayStrategy": 5708,
      "InterruptedException": 5709,
      "ĠMaxAttemptsRetryStrategy": 5710,
      "01": 5711,
      "DC": 5712,
      "ade": 5713,
      "sb": 5714,
      "syn": 5715,
      "ĠTI": 5716,
      "Ġ\\\"": 5717,
      "ĠExpressionTree": 5718,
      "Ġamount": 5719,
      "onts": 5720,
      "reader": 5721,
      "ismatch": 5722,
      "quals": 5723,
      "InBytes": 5724,
      "Ġschedule": 5725,
      "Ġbits": 5726,
      "Ġinst": 5727,
      "ĠPA": 5728,
      "verride": 5729,
      "convert": 5730,
      "Times": 5731,
      "LEE": 5732,
      "Activities": 5733,
      "ĠFUNCTION": 5734,
      "SdkFunction": 5735,
      "ront": 5736,
      "FIELD": 5737,
      "LOB": 5738,
      "EXECUTION": 5739,
      "Ġextension": 5740,
      "withDefault": 5741,
      "withSdkFunction": 5742,
      "Iterable": 5743,
      "ApiRequest": 5744,
      "setFont": 5745,
      "propertyName": 5746,
      "GION": 5747,
      "ĠPARAMETER": 5748,
      "ĠByteArrayOutputStream": 5749,
      "Area": 5750,
      "currentTimeMillis": 5751,
      "antity": 5752,
      "withAcceptors": 5753,
      "Audio": 5754,
      "Crypto": 5755,
      "Md": 5756,
      "Price": 5757,
      "Turn": 5758,
      "uded": 5759,
      "getField": 5760,
      "toring": 5761,
      "toArray": 5762,
      "Ġrender": 5763,
      "additional": 5764,
      "ToDirectConnectGateway": 5765,
      "validate": 5766,
      "ĠAWS": 5767,
      "player": 5768,
      "concurrent": 5769,
      "STREAM": 5770,
      "SITE": 5771,
      "TextVisible": 5772,
      "ĠVOLUME": 5773,
      "cluded": 5774,
      "getCustom": 5775,
      "getDestination": 5776,
      "Without": 5777,
      "Ġcompute": 5778,
      "withExecutorService": 5779,
      "Models": 5780,
      "Ġminute": 5781,
      "ĠXml": 5782,
      "Ġleast": 5783,
      "SubscriptionRequest": 5784,
      "Principals": 5785,
      "ĠJsonMapper": 5786,
      "ĠImmutableSet": 5787,
      "Ġoptim": 5788,
      "Ġiterator": 5789,
      "Primary": 5790,
      "BasedAutoScaling": 5791,
      "ĠWaiterBuilder": 5792,
      "Ġdecimal": 5793,
      "subscribe": 5794,
      "Recipient": 5795,
      "PrefixesToDirectConnectGateway": 5796,
      "Ġregistrar": 5797,
      "withDefaultPollingStrategy": 5798,
      "+\"": 5799,
      "Campaign": 5800,
      "Dri": 5801,
      "FirstChild": 5802,
      "ITI": 5803,
      "body": 5804,
      "bucket": 5805,
      "gory": 5806,
      "handle": 5807,
      "Ġav": 5808,
      "Ġassociate": 5809,
      "Ġts": 5810,
      "getUrl": 5811,
      "Ġed": 5812,
      "Ġsure": 5813,
      "setStroke": 5814,
      "ĠAss": 5815,
      "Ġconcept": 5816,
      "Deploy": 5817,
      "PoliciesRequest": 5818,
      "Ġ>>": 5819,
      "oneNumber": 5820,
      "Queries": 5821,
      "equalsIgnoreCase": 5822,
      "Functions": 5823,
      "Ġlevel": 5824,
      "Triggers": 5825,
      "QUER": 5826,
      "Ġapi": 5827,
      "Ġdoesn": 5828,
      "STOM": 5829,
      "Ġcalculate": 5830,
      "getCreationTime": 5831,
      "PRIORITY": 5832,
      "Dashboard": 5833,
      "';": 5834,
      "BigInteger": 5835,
      "Feedback": 5836,
      "LIN": 5837,
      "notification": 5838,
      "tection": 5839,
      "zation": 5840,
      "Ġ#": 5841,
      "role": 5842,
      "getServer": 5843,
      "getLocation": 5844,
      "Expected": 5845,
      "ĠfontSize": 5846,
      "ListItem": 5847,
      "igDecimal": 5848,
      "ĠPar": 5849,
      "ĠPath": 5850,
      "ither": 5851,
      "Ġlon": 5852,
      "InstanceCredit": 5853,
      "pond": 5854,
      "ummary": 5855,
      "OfMonth": 5856,
      "ĠObjectType": 5857,
      "getDirectory": 5858,
      "ScriptError": 5859,
      "arker": 5860,
      "StackTrace": 5861,
      "ĠGener": 5862,
      "Ġpartial": 5863,
      "JsonObject": 5864,
      "Ġliter": 5865,
      "disk": 5866,
      "UBLIC": 5867,
      "FORMAT": 5868,
      "ĠCREATIONTIME": 5869,
      "Ġdiffer": 5870,
      "aPNS": 5871,
      "RESOLVE": 5872,
      "AWS": 5873,
      "FOR": 5874,
      "FCA": 5875,
      "WE": 5876,
      "bability": 5877,
      "hcp": 5878,
      "{}": 5879,
      "ĠEn": 5880,
      "ĠUser": 5881,
      "ĠConcept": 5882,
      "ances": 5883,
      "Ġcost": 5884,
      "Ġsql": 5885,
      "aged": 5886,
      "Strings": 5887,
      "Ġmean": 5888,
      "address": 5889,
      "NameNode": 5890,
      "ĠMin": 5891,
      "createEReference": 5892,
      "ALSE": 5893,
      "TagSet": 5894,
      "Quot": 5895,
      "Interconnect": 5896,
      "Shadow": 5897,
      "RuleSet": 5898,
      "Ġencode": 5899,
      "Ġenvironment": 5900,
      "Ġdefined": 5901,
      "Components": 5902,
      "CharSequence": 5903,
      "ĠImage": 5904,
      "getResourceId": 5905,
      "ĠDateTimeFormatter": 5906,
      "Ġexpressions": 5907,
      "Aliases": 5908,
      "initEReference": 5909,
      "FERRED": 5910,
      "SubnetGroups": 5911,
      "getReturn": 5912,
      "ĠUndefined": 5913,
      "header": 5914,
      "Behavior": 5915,
      "ĠNODE": 5916,
      "Ġboth": 5917,
      "Prediction": 5918,
      "period": 5919,
      "PROXIES": 5920,
      "COMPOSITE": 5921,
      "Ġavoid": 5922,
      "15": 5923,
      "Abs": 5924,
      "Button": 5925,
      "DominantLanguage": 5926,
      "Front": 5927,
      "Home": 5928,
      "Such": 5929,
      "][": 5930,
      "ote": 5931,
      "Ġ;": 5932,
      "getStream": 5933,
      "getChild": 5934,
      "getAction": 5935,
      "getAccountId": 5936,
      "Ġpredicate": 5937,
      "Ġpayload": 5938,
      "Ġcluster": 5939,
      "Ġrhs": 5940,
      "agesRequest": 5941,
      "peers": 5942,
      "Ġfollow": 5943,
      "ĠSecurity": 5944,
      "Ġ\"+": 5945,
      "ĠDef": 5946,
      "ĠĠĠĠĠĠĠĠĠĠĠĠĠĠĠĠĠĠĠĠĠĠĠĠĠĠĠĠĠĠĠĠĠĠĠĠĠĠĠ": 5947,
      "ENUM": 5948,
      "ĠBitmap": 5949,
      "ConfigurationRecord": 5950,
      "ĠNUMBER": 5951,
      "JobSummary": 5952,
      "reservation": 5953,
      "product": 5954,
      "RunContainer": 5955,
      "Ġ|=": 5956,
      "OrEmpty": 5957,
      "SSO": 5958,
      "associated": 5959,
      "BaseResource": 5960,
      "vironments": 5961,
      "Appli": 5962,
      "ScheduleAction": 5963,
      "Ġplayer": 5964,
      "Aggregator": 5965,
      "ĠRESOURCEID": 5966,
      "Ġgenerator": 5967,
      "Digest": 5968,
      "Literals": 5969,
      "AssessmentRun": 5970,
      "Ġ[\"": 5971,
      "mediation": 5972,
      "clusion": 5973,
      "Invitation": 5974,
      "elemetry": 5975,
      "ernary": 5976,
      "ĠParameter": 5977,
      "POOLID": 5978,
      "ClassicLink": 5979,
      "google": 5980,
      "DEFINI": 5981,
      "Abstract": 5982,
      "BL": 5983,
      "Bulk": 5984,
      "Lambda": 5985,
      "WITH": 5986,
      "Zero": 5987,
      "autoScaling": 5988,
      "cc": 5989,
      "eInverse": 5990,
      "hing": 5991,
      "handlers": 5992,
      "ld": 5993,
      "oo": 5994,
      "ving": 5995,
      "ĠInternal": 5996,
      "Ġentries": 5997,
      "alformed": 5998,
      "getO": 5999,
      "getY": 6000,
      "getTable": 6001,
      "isode": 6002,
      "Ġsave": 6003,
      "Ġserial": 6004,
      "aging": 6005,
      "admin": 6006,
      "Ġvirtual": 6007,
      "Ġ\"]": 6008,
      "Ġ\"\");": 6009,
      "Ġind": 6010,
      "Ġinstrument": 6011,
      "ERE": 6012,
      "ToUse": 6013,
      "ĠtheXMLTypePackage": 6014,
      "Ġlineno": 6015,
      "KeyPhrases": 6016,
      "TAUpdate": 6017,
      "InstanceTypes": 6018,
      "ByTime": 6019,
      "InternalEObject": 6020,
      "also": 6021,
      "OfWeek": 6022,
      "ĠHamtPMap": 6023,
      "erials": 6024,
      "undles": 6025,
      "ConnectionRequest": 6026,
      "OPERATION": 6027,
      "Ġaccept": 6028,
      "Ġfunctions": 6029,
      "MaintenanceAction": 6030,
      "Ġrefund": 6031,
      "height": 6032,
      "Ġframe": 6033,
      "ĠFunctionType": 6034,
      "ClassifierRequest": 6035,
      "ĠVerification": 6036,
      "StructureDefinition": 6037,
      "ĠastFactory": 6038,
      "FILTER": 6039,
      "AwareLogger": 6040,
      "omething": 6041,
      "QUERY": 6042,
      "AVA": 6043,
      "Broker": 6044,
      "Fixed": 6045,
      "MIT": 6046,
      "Sw": 6047,
      "bar": 6048,
      "catch": 6049,
      "less": 6050,
      "lhs": 6051,
      "rules": 6052,
      "ually": 6053,
      "ĠValue": 6054,
      "Ġtwo": 6055,
      "require": 6056,
      "getExecution": 6057,
      "getAccess": 6058,
      "getStack": 6059,
      "getVolume": 6060,
      "isTextVisible": 6061,
      "Ġca": 6062,
      "Ġcached": 6063,
      "deem": 6064,
      "Ġscal": 6065,
      "Ġmessages": 6066,
      "getMixed": 6067,
      "Unprocessed": 6068,
      "Changed": 6069,
      "ĠCU": 6070,
      "ĠIdemixUtils": 6071,
      "ĠBuilder": 6072,
      "DED": 6073,
      "lower": 6074,
      "ThirdParty": 6075,
      "Space": 6076,
      "ACTION": 6077,
      "Ġcompare": 6078,
      "Ġextra": 6079,
      "IteratorState": 6080,
      "connected": 6081,
      "groups": 6082,
      "ASON": 6083,
      "Statistic": 6084,
      "amples": 6085,
      "while": 6086,
      "Alternative": 6087,
      "uplicate": 6088,
      "PurchaseRecommend": 6089,
      "Archive": 6090,
      "ĠOBJECT": 6091,
      "ĠSTREAM": 6092,
      "80": 6093,
      "Atom": 6094,
      "Direction": 6095,
      "NUMBER": 6096,
      "Sentiment": 6097,
      "UAL": 6098,
      "certificate": 6099,
      "credentials": 6100,
      "distance": 6101,
      "font": 6102,
      "ĠLog": 6103,
      "registry": 6104,
      "getU": 6105,
      "isFunction": 6106,
      "(\"/": 6107,
      "Conversion": 6108,
      "activ": 6109,
      "ONTH": 6110,
      "Ġinclude": 6111,
      "Ġinsert": 6112,
      "ĠPo": 6113,
      "ERATED": 6114,
      "ocate": 6115,
      "ToRe": 6116,
      "ĠtheResource": 6117,
      "ĠCLUSTER": 6118,
      "viation": 6119,
      "newBuilder": 6120,
      "ĠBACKUP": 6121,
      "ĠTernary": 6122,
      "UNT": 6123,
      "getPort": 6124,
      "Ġlook": 6125,
      "FromString": 6126,
      "getCluster": 6127,
      "getLayout": 6128,
      "TIMESTAMP": 6129,
      "Discovered": 6130,
      "EXTEN": 6131,
      "ĠclassName": 6132,
      "ĠclassLoader": 6133,
      "ĠfieldType": 6134,
      "Ġvalidation": 6135,
      "Orderer": 6136,
      "getLastModified": 6137,
      "Authorizer": 6138,
      "ĠrangeStart": 6139,
      "GROUPNAME": 6140,
      "resolve": 6141,
      "ProvisioningArtifactRequest": 6142,
      "allowed": 6143,
      "constructor": 6144,
      "Ġsmall": 6145,
      "TimedOut": 6146,
      "65": 6147,
      "BP": 6148,
      "Bug": 6149,
      "Cookie": 6150,
      "Lit": 6151,
      "My": 6152,
      "PCE": 6153,
      "SPE": 6154,
      "cate": 6155,
      "prototype": 6156,
      "pisode": 6157,
      "sum": 6158,
      "ĠEntity": 6159,
      "Ġalso": 6160,
      "instances": 6161,
      "getter": 6162,
      "getThing": 6163,
      "Ġnormal": 6164,
      "toIntUnsigned": 6165,
      "ledge": 6166,
      "Ġcard": 6167,
      "Ġcertificate": 6168,
      "astore": 6169,
      "(\",": 6170,
      "ication": 6171,
      "terns": 6172,
      "ĠsetAttributes": 6173,
      "ĠtheValue": 6174,
      "KeyId": 6175,
      "ObjectPrefix": 6176,
      ")),": 6177,
      "ĠACTION": 6178,
      "ĠexecuteStart": 6179,
      "Ġdelta": 6180,
      "ĠLocation": 6181,
      "ordin": 6182,
      "properties": 6183,
      "Collections": 6184,
      "FileName": 6185,
      "TaskIds": 6186,
      "DefinitionVersionRequest": 6187,
      "getClo": 6188,
      "Subtype": 6189,
      "getLong": 6190,
      "Ġmethods": 6191,
      "ServerRequest": 6192,
      "MetricCollector": 6193,
      "ILL": 6194,
      "Ġcontain": 6195,
      "encies": 6196,
      "Visibility": 6197,
      "MappingRequest": 6198,
      "ĠRESOURCETYPE": 6199,
      "PipelineRequest": 6200,
      "doubleValue": 6201,
      "REFERENCE": 6202,
      "nowledge": 6203,
      "Confidence": 6204,
      "Ġtraverse": 6205,
      "chaincode": 6206,
      "ottomNavigationTab": 6207,
      "Ġradix": 6208,
      "DataSync": 6209,
      "ĠWORK": 6210,
      "ĠTernaryValue": 6211,
      "FTER": 6212,
      "Left": 6213,
      "Measure": 6214,
      "OVER": 6215,
      "PR": 6216,
      "SMB": 6217,
      "eam": 6218,
      "eep": 6219,
      "rand": 6220,
      "yy": 6221,
      "esh": 6222,
      "getEvent": 6223,
      "getProcess": 6224,
      "Ġpn": 6225,
      "Ġpackage": 6226,
      "lim": 6227,
      "ecraft": 6228,
      "Ġfun": 6229,
      "Ġrequested": 6230,
      "agement": 6231,
      "assword": 6232,
      "Ġmat": 6233,
      "Artwork": 6234,
      "Ġdone": 6235,
      "ConfigurationDescription": 6236,
      "ĠFA": 6237,
      "Quantity": 6238,
      "Matches": 6239,
      "ifiable": 6240,
      "StartTime": 6241,
      "Play": 6242,
      "Modification": 6243,
      "ĠDESTINATION": 6244,
      "ĠDEPLOY": 6245,
      "Manifest": 6246,
      "Ġpartition": 6247,
      "UsersRequest": 6248,
      "LabelingJob": 6249,
      "DateTimeFieldType": 6250,
      "Ġdisassociate": 6251,
      "Ġconnected": 6252,
      "Ġgroups": 6253,
      "HistoryRequest": 6254,
      "UPDATED": 6255,
      "transform": 6256,
      "Selected": 6257,
      "Consumer": 6258,
      "xFFFF": 6259,
      "DirectConnectGatewayAssociation": 6260,
      "Ġexpect": 6261,
      "BEAN": 6262,
      "Ġdocumentation": 6263,
      "veloper": 6264,
      "Speech": 6265,
      "ĠCONFIGURATION": 6266,
      "ĠDIRECTORY": 6267,
      "Builtin": 6268,
      "Equals": 6269,
      "Handsh": 6270,
      "JEL": 6271,
      "Mail": 6272,
      "Sources": 6273,
      "Suite": 6274,
      "pub": 6275,
      "snapshot": 6276,
      "ux": 6277,
      "vb": 6278,
      "watch": 6279,
      "way": 6280,
      "Ġ^": 6281,
      "Ġoc": 6282,
      "Ġturn": 6283,
      "reverse": 6284,
      "getResponse": 6285,
      "isArray": 6286,
      "Ġph": 6287,
      "Req": 6288,
      "Ġthrough": 6289,
      "Ġei": 6290,
      "Ġcipher": 6291,
      "license": 6292,
      "Ġfall": 6293,
      "termin": 6294,
      "thesis": 6295,
      "loor": 6296,
      "Ġwindow": 6297,
      "ĠDynamic": 6298,
      "ĠCase": 6299,
      "ĠCoin": 6300,
      "ĠJSDocInfo": 6301,
      "ĠIP": 6302,
      "Mappeable": 6303,
      "ARCH": 6304,
      "Ġio": 6305,
      "ĠNull": 6306,
      "ĠFS": 6307,
      "ponential": 6308,
      "rone": 6309,
      "ServiceAccess": 6310,
      "OptionGroup": 6311,
      "getDat": 6312,
      "LOCATION": 6313,
      "Ġenv": 6314,
      "userPool": 6315,
      "MENTS": 6316,
      "ĠnextValue": 6317,
      "ĠnextObject": 6318,
      "Servers": 6319,
      "Ġminutes": 6320,
      "OLD": 6321,
      "TRA": 6322,
      "FlowRequest": 6323,
      "PermissionsRequest": 6324,
      "ScheduleRequest": 6325,
      "Years": 6326,
      "OpCode": 6327,
      "Ġhead": 6328,
      "Exports": 6329,
      "Patches": 6330,
      "modify": 6331,
      "PREFERRED": 6332,
      "ĠUnsupported": 6333,
      "EngineVersion": 6334,
      "qualified": 6335,
      "ĠUSERNAME": 6336,
      "Ġfilters": 6337,
      "SecondaryIndexes": 6338,
      "TransitGatewayRouteTable": 6339,
      "STORE": 6340,
      "centage": 6341,
      "ĠTHING": 6342,
      "ĠMODE": 6343,
      "JELLY": 6344,
      "BpsimPackage": 6345,
      "GL": 6346,
      "Missing": 6347,
      "OFF": 6348,
      "Scopes": 6349,
      "Sandbox": 6350,
      "Treat": 6351,
      "aim": 6352,
      "bor": 6353,
      "cr": 6354,
      "metadata": 6355,
      "sr": 6356,
      "etter": 6357,
      "Ġtermin": 6358,
      "reference": 6359,
      "getIs": 6360,
      "getFilters": 6361,
      "getHost": 6362,
      "Ġctor": 6363,
      "Ġcases": 6364,
      "chor": 6365,
      "Ġsee": 6366,
      "aggreg": 6367,
      "ĠSign": 6368,
      "Ġ\")": 6369,
      "ĠPAGE": 6370,
      "ributor": 6371,
      "ĠTEXT": 6372,
      "ircle": 6373,
      "Routing": 6374,
      "Animation": 6375,
      "getPage": 6376,
      "RESH": 6377,
      "TOP": 6378,
      "DomainName": 6379,
      "Training": 6380,
      "ĠRest": 6381,
      "RouteRequest": 6382,
      "TRY": 6383,
      "ĠCONNEC": 6384,
      "ResolverRule": 6385,
      "ComplianceSummary": 6386,
      "QUI": 6387,
      "ĠArrayContainer": 6388,
      "ĠIterable": 6389,
      "crease": 6390,
      "ĠEXECUTION": 6391,
      "Collectors": 6392,
      "compareTo": 6393,
      "ĠLASTMODIFIED": 6394,
      "CONTENT": 6395,
      "HEIGHT": 6396,
      "ĠFILTERS": 6397,
      "ĠWxEndpoint": 6398,
      "PKH": 6399,
      "NotebookInstanceLifecycle": 6400,
      "DedicatedIp": 6401,
      "TURN": 6402,
      "ĠFSENTRY": 6403,
      "AG": 6404,
      "DropDown": 6405,
      "Gen": 6406,
      "Landmark": 6407,
      "Mask": 6408,
      "Sort": 6409,
      "Sched": 6410,
      "Wallet": 6411,
      "lon": 6412,
      "pn": 6413,
      "pstr": 6414,
      "rapped": 6415,
      "system": 6416,
      "wallet": 6417,
      "getConfiguration": 6418,
      "Ġnavigation": 6419,
      "Ġnever": 6420,
      "lice": 6421,
      "Ġsocket": 6422,
      "ĠSH": 6423,
      "Env": 6424,
      "ĠIMAGE": 6425,
      "Ġwithout": 6426,
      "ARY": 6427,
      "Ġdepend": 6428,
      "ower": 6429,
      "Compress": 6430,
      "StatusResult": 6431,
      "DefinitionsRequest": 6432,
      "AttributesResult": 6433,
      "ĠES": 6434,
      "Ġjoin": 6435,
      "SizeInBytes": 6436,
      "QueryRequest": 6437,
      "(((": 6438,
      "compile": 6439,
      "ĠRef": 6440,
      "ScalingPlan": 6441,
      "ThingGroupRequest": 6442,
      "\\\":": 6443,
      "STRACT": 6444,
      "RTUAL": 6445,
      "ĠIDENTITY": 6446,
      "ĠRESOURCEARN": 6447,
      "Offerings": 6448,
      "ceiver": 6449,
      "ĠSERVICE": 6450,
      "getRoleArn": 6451,
      "ĠwxClient": 6452,
      "getLeaf": 6453,
      "Ġinstead": 6454,
      "!=": 6455,
      "BLOCK": 6456,
      "EOL": 6457,
      "HOUR": 6458,
      "MIS": 6459,
      "Maybe": 6460,
      "Rad": 6461,
      "basic": 6462,
      "eded": 6463,
      "fil": 6464,
      "kew": 6465,
      "ma": 6466,
      "sue": 6467,
      "Ġqueue": 6468,
      "esting": 6469,
      "aled": 6470,
      "ceed": 6471,
      "ceeded": 6472,
      "Ġ(;": 6473,
      "stage": 6474,
      "Ins": 6475,
      "INDO": 6476,
      "Ġfilename": 6477,
      "Ġvari": 6478,
      "uncated": 6479,
      "loating": 6480,
      "getModel": 6481,
      "Ġdt": 6482,
      "Ġdescriptor": 6483,
      "ump": 6484,
      "eff": 6485,
      "ĠDec": 6486,
      "ĠĠĠĠĠĠĠĠĠĠĠĠĠĠĠĠĠĠĠĠĠĠĠĠĠĠĠĠ": 6487,
      "newInstance": 6488,
      "TATION": 6489,
      "TATTRIBUTES": 6490,
      "IDConnect": 6491,
      "Classification": 6492,
      "ĠLifecycle": 6493,
      "ROUND": 6494,
      "Compatible": 6495,
      "TagOption": 6496,
      "Connected": 6497,
      "ĠEVCache": 6498,
      "ticip": 6499,
      "LogTypes": 6500,
      "ĠĠĠĠĠĠĠĠĠĠĠĠĠĠĠĠĠĠĠĠĠĠĠĠĠĠĠĠĠĠĠĠĠ": 6501,
      "ĠmethodName": 6502,
      "ĠGH": 6503,
      "Parse": 6504,
      "ByteCode": 6505,
      "RoleArn": 6506,
      "DAP": 6507,
      "Ġsigned": 6508,
      "DateTimeZone": 6509,
      "Ġplus": 6510,
      "InvocationTree": 6511,
      "Extensions": 6512,
      "Ġopcode": 6513,
      "OnlyInternetGateway": 6514,
      "eeded": 6515,
      "runs": 6516,
      "Ġdeclar": 6517,
      "AllowedPrefixesToDirectConnectGateway": 6518,
      "JsDocToken": 6519,
      "emptyList": 6520,
      "ĠNote": 6521,
      "ĠBatchGet": 6522,
      "Relationship": 6523,
      "ProvisionedProductPlan": 6524,
      "issionInit": 6525,
      "chunks": 6526,
      "endorExtension": 6527,
      "WAIT": 6528,
      "TAINER": 6529,
      "TrafficPolicy": 6530,
      "DEFINITION": 6531,
      "ADER": 6532,
      "BIT": 6533,
      "Beg": 6534,
      "Da": 6535,
      "Test": 6536,
      "Telemetry": 6537,
      "border": 6538,
      "ga": 6539,
      "nodes": 6540,
      "pi": 6541,
      "retry": 6542,
      "ĠMetadata": 6543,
      "Ġprototype": 6544,
      "INC": 6545,
      "ascript": 6546,
      "Steps": 6547,
      "Ġsum": 6548,
      "peed": 6549,
      "ilest": 6550,
      "Ġ\"/": 6551,
      "ĠgetValue": 6552,
      "Setter": 6553,
      "ENABLED": 6554,
      "GroupNames": 6555,
      "ĠAbstract": 6556,
      "Ġresources": 6557,
      "locate": 6558,
      "foo": 6559,
      "ByName": 6560,
      "JobResult": 6561,
      "ĠFLEE": 6562,
      "UpdateGroup": 6563,
      "getSecurity": 6564,
      "getSegment": 6565,
      "Implementation": 6566,
      "Analysis": 6567,
      "ĠEVENT": 6568,
      "Ġbeing": 6569,
      "ĉĉĉĉĉĉĉĉ": 6570,
      "ARNs": 6571,
      "ElementMatcher": 6572,
      "Modes": 6573,
      "getFleet": 6574,
      "VERY": 6575,
      "Encoder": 6576,
      "ĠReturn": 6577,
      "Ġimplement": 6578,
      "BatchRequest": 6579,
      "rimitive": 6580,
      "SchemaRequest": 6581,
      "Generate": 6582,
      "MaintenanceActions": 6583,
      "ĠDateTimeConstants": 6584,
      "ResolverEndpoint": 6585,
      "ĠschemaObjectPrefix": 6586,
      "Declared": 6587,
      "Close": 6588,
      "vention": 6589,
      "MaintenanceWindowRequest": 6590,
      "MSKEY": 6591,
      "lastIndex": 6592,
      "Digit": 6593,
      "mediate": 6594,
      "Ġmonths": 6595,
      "ĠFieldUtils": 6596,
      "hlsGroupSettings": 6597,
      "velope": 6598,
      "ShardLevelMetrics": 6599,
      "Categories": 6600,
      "Observer": 6601,
      "FindingsRequest": 6602,
      "Dependency": 6603,
      "Installed": 6604,
      "GENERATED": 6605,
      "cludes": 6606,
      "isNullOrEmpty": 6607,
      "light": 6608,
      "Best": 6609,
      "CLO": 6610,
      "Fn": 6611,
      "Handle": 6612,
      "HyperParameterTuningJob": 6613,
      "Hopper": 6614,
      "Math": 6615,
      "NULL": 6616,
      "Stored": 6617,
      "WP": 6618,
      "gle": 6619,
      "pth": 6620,
      "ves": 6621,
      "ze": 6622,
      "ĠChannel": 6623,
      "arting": 6624,
      "invalid": 6625,
      "alleng": 6626,
      "getAttributes": 6627,
      "getConnection": 6628,
      "getLocalMillis": 6629,
      "Ġpq": 6630,
      "ulate": 6631,
      "Remaining": 6632,
      "deploy": 6633,
      "Explorer": 6634,
      "ecting": 6635,
      "lick": 6636,
      "ĠSTR": 6637,
      "acer": 6638,
      "apacity": 6639,
      "ĠsetItems": 6640,
      "ExecutionException": 6641,
      "ĠATT": 6642,
      "ĠTE": 6643,
      "Ġconstant": 6644,
      "TimeZone": 6645,
      "ĠFHIR": 6646,
      "ALS": 6647,
      "Ġcreated": 6648,
      "getDimension": 6649,
      "osite": 6650,
      "QueryExecution": 6651,
      "raql": 6652,
      "iteral": 6653,
      "theResource": 6654,
      "FAILE": 6655,
      "DomainNames": 6656,
      "topic": 6657,
      "ĠRemove": 6658,
      "TrustedAdvisorCheck": 6659,
      "Ġidentity": 6660,
      "Fragments": 6661,
      "RangeKey": 6662,
      "ĠprocessInstance": 6663,
      "processing": 6664,
      "Comments": 6665,
      "getUserPool": 6666,
      "FOUND": 6667,
      "BackgroundColor": 6668,
      "PhoneNumbers": 6669,
      "IntegrationResponseRequest": 6670,
      "Ġassignment": 6671,
      "Termination": 6672,
      "seconds": 6673,
      "ĠAttributeValue": 6674,
      "video": 6675,
      "ADDRESS": 6676,
      "presentation": 6677,
      "Monitor": 6678,
      "AUTH": 6679,
      "Indices": 6680,
      "ĠJsDocToken": 6681,
      "allenge": 6682,
      "'re": 6683,
      ")(": 6684,
      ")\",": 6685,
      "509": 6686,
      "Episode": 6687,
      "Icon": 6688,
      "Ut": 6689,
      "bilities": 6690,
      "evalu": 6691,
      "ian": 6692,
      "mode": 6693,
      "sest": 6694,
      "sIn": 6695,
      "ĠContent": 6696,
      "Ġapplication": 6697,
      "getUn": 6698,
      "getChannel": 6699,
      "getRest": 6700,
      "Ġnegative": 6701,
      "leep": 6702,
      "dec": 6703,
      "Ġsd": 6704,
      "Ġsingle": 6705,
      "ĠSC": 6706,
      "StringBuilder": 6707,
      "Ġdays": 6708,
      "Ġexist": 6709,
      "ĠCan": 6710,
      "ĠĠĠĠĠĠĠĠĠĠĠĠĠĠĠĠĠĠĠĠĠĠĠĠĠ": 6711,
      "Ġrequire": 6712,
      "ĠADD": 6713,
      "Ġelastic": 6714,
      "services": 6715,
      "ĠMAR": 6716,
      "Ġauto": 6717,
      "Ġcomment": 6718,
      "DataPoint": 6719,
      "ĠLabel": 6720,
      "getSchedule": 6721,
      "Ġproject": 6722,
      "StreamRequest": 6723,
      "ĠvalueText": 6724,
      "Ġgu": 6725,
      "Precision": 6726,
      "DeviceRequest": 6727,
      "BasePath": 6728,
      "AccountIds": 6729,
      "POLICY": 6730,
      "ĠClassLoader": 6731,
      "ĠĠĠĠĠĠĠĠĠĠĠĠĊ": 6732,
      "cloudWatch": 6733,
      "mitted": 6734,
      "Pairs": 6735,
      "events": 6736,
      "Retrie": 6737,
      "Ġadded": 6738,
      "head": 6739,
      "IntegrationRequest": 6740,
      "LayoutParams": 6741,
      "ĠENDPOINT": 6742,
      "ABSTRACT": 6743,
      "brruns": 6744,
      "Ġflags": 6745,
      "bpm": 6746,
      "Msg": 6747,
      "ĠDOMAINNAME": 6748,
      "stitution": 6749,
      "ĠCOLOR": 6750,
      "andidate": 6751,
      "SSOCI": 6752,
      "ĠVerificationException": 6753,
      "ĠCUSTOM": 6754,
      "11": 6755,
      "Core": 6756,
      "Destinations": 6757,
      "MBER": 6758,
      "Named": 6759,
      "Pipe": 6760,
      "SV": 6761,
      "Sections": 6762,
      "Team": 6763,
      "automationExecution": 6764,
      "days": 6765,
      "gl": 6766,
      "gen": 6767,
      "jbpm": 6768,
      "lambda": 6769,
      "package": 6770,
      "ĠStack": 6771,
      "ons": 6772,
      "getTypes": 6773,
      "isConstructor": 6774,
      "isPrimitive": 6775,
      "()];": 6776,
      "Review": 6777,
      "rip": 6778,
      "ingInfo": 6779,
      "ational": 6780,
      "Ġsnapshot": 6781,
      "Ġsafe": 6782,
      "Ġbetween": 6783,
      "ONLY": 6784,
      "assessment": 6785,
      "otInstanceRequest": 6786,
      "aint": 6787,
      "Protection": 6788,
      "setMax": 6789,
      "ĠCA": 6790,
      "ĠIss": 6791,
      "thisObj": 6792,
      "ĠAuth": 6793,
      "Classes": 6794,
      "ClassTree": 6795,
      "Compound": 6796,
      "ypher": 6797,
      "temp": 6798,
      "redient": 6799,
      "chemas": 6800,
      "AttributeRequest": 6801,
      "CHAR": 6802,
      "Ġencoded": 6803,
      "MAIL": 6804,
      "etermin": 6805,
      "getReplication": 6806,
      "ĠTAG": 6807,
      "ĠENABLED": 6808,
      "printStackTrace": 6809,
      "Resolution": 6810,
      "signature": 6811,
      "YearMonth": 6812,
      "Ġlike": 6813,
      "Printer": 6814,
      "JSON": 6815,
      "Queues": 6816,
      "SubnetGroup": 6817,
      "Consumed": 6818,
      "availability": 6819,
      "CertificateAuthorities": 6820,
      "Terminate": 6821,
      "resolver": 6822,
      "ĠUI": 6823,
      "Confirm": 6824,
      "scheduled": 6825,
      "ĠAUTHOR": 6826,
      "getDomainName": 6827,
      "LowerCase": 6828,
      "ĠPreconditions": 6829,
      "CLUDE": 6830,
      "byteBuddyWith": 6831,
      "Ġliteral": 6832,
      "ĠIssue": 6833,
      "33": 6834,
      "Creator": 6835,
      "Fold": 6836,
      "Features": 6837,
      "Fonts": 6838,
      "HI": 6839,
      "MUL": 6840,
      "Numeric": 6841,
      "NONE": 6842,
      "NaN": 6843,
      "Prone": 6844,
      "QName": 6845,
      "Severity": 6846,
      "found": 6847,
      "ibl": 6848,
      "option": 6849,
      "ĠInstance": 6850,
      "ĠURI": 6851,
      "required": 6852,
      "replica": 6853,
      "getHeight": 6854,
      "ulesRequest": 6855,
      "External": 6856,
      "ectivity": 6857,
      "aml": 6858,
      "Ġfull": 6859,
      "Ġfixed": 6860,
      "(\".": 6861,
      "Ġbranch": 6862,
      "Ġvpc": 6863,
      "acing": 6864,
      "TypeName": 6865,
      "ĠPRI": 6866,
      "getMarker": 6867,
      "Projection": 6868,
      "Provided": 6869,
      "ĠCancel": 6870,
      "ailures": 6871,
      "Contributor": 6872,
      "inder": 6873,
      "profile": 6874,
      "Streaming": 6875,
      "Any": 6876,
      "Forward": 6877,
      "SettingsDescription": 6878,
      "--;": 6879,
      "SizeConstraint": 6880,
      "Ġdefine": 6881,
      "ImageRequest": 6882,
      "Decimals": 6883,
      "Ġidentifier": 6884,
      "Used": 6885,
      "BatchGet": 6886,
      "OperationException": 6887,
      "PeriodType": 6888,
      "AsyncHandler": 6889,
      "documentRoot": 6890,
      "RENCY": 6891,
      "SECOND": 6892,
      "getJobId": 6893,
      "TypedLinkFacet": 6894,
      "Tooltip": 6895,
      "Endorsement": 6896,
      "ĠVIRTUAL": 6897,
      "METADATA": 6898,
      "ExecutionTaskInvocation": 6899,
      "olutePath": 6900,
      "idden": 6901,
      "brity": 6902,
      "workflowExecution": 6903,
      "LOBAL": 6904,
      "ĠSTRING": 6905,
      "60": 6906,
      "Coin": 6907,
      "DURATION": 6908,
      "EDataType": 6909,
      "Font": 6910,
      "Histo": 6911,
      "Live": 6912,
      "Push": 6913,
      "Right": 6914,
      "SM": 6915,
      "WARN": 6916,
      "YN": 6917,
      "dt": 6918,
      "dimension": 6919,
      "hance": 6920,
      "ĠName": 6921,
      "allel": 6922,
      "relation": 6923,
      "getApiId": 6924,
      "RequestDetails": 6925,
      "ider": 6926,
      "Ġsomething": 6927,
      "ĠSCHEDULE": 6928,
      "(\"\\\\": 6929,
      "Ġthrowable": 6930,
      "Ġ\"(": 6931,
      "apes": 6932,
      "updates": 6933,
      "cription": 6934,
      "Ġmerged": 6935,
      "ĠPRE": 6936,
      "ourLog": 6937,
      "Ġdb": 6938,
      "ĠCLO": 6939,
      "ĠCoding": 6940,
      "TAL": 6941,
      "ĠBasic": 6942,
      "Ġprops": 6943,
      "GEX": 6944,
      "FilterRequest": 6945,
      "teger": 6946,
      "ItemRequest": 6947,
      "InstancesResult": 6948,
      "ĠĠĠĠĠĠĠĠĠĠĠĠĠĠĠĠĠĠĠĠĠĠĠĠĠĠĠĠĠĠĠĠĠĠ": 6949,
      "Domains": 6950,
      "egments": 6951,
      "IdentityRequest": 6952,
      "ĠREPLICATION": 6953,
      "force": 6954,
      "Ġobjects": 6955,
      "ProductRequest": 6956,
      "after": 6957,
      "getKeyAtIndex": 6958,
      "JSDocInfo": 6959,
      "getInstanceType": 6960,
      "QueueRequest": 6961,
      "ChartData": 6962,
      "ENTICATION": 6963,
      "AutoComplete": 6964,
      "Ġpoints": 6965,
      "Latency": 6966,
      "bitmaps": 6967,
      "PrivateKey": 6968,
      "authoriz": 6969,
      "ĠECKey": 6970,
      "PortfolioRequest": 6971,
      "ĠServer": 6972,
      "ĠDebug": 6973,
      "ATTRIBUTE": 6974,
      "Delegate": 6975,
      "ĠunitText": 6976,
      "FACTORY": 6977,
      "PatchBaselineRequest": 6978,
      "expect": 6979,
      "LABEL": 6980,
      "Ġclear": 6981,
      "InferenceAccelerator": 6982,
      "ĠAPIID": 6983,
      "getSecondChild": 6984,
      "getNumberOf": 6985,
      "isticKey": 6986,
      "PurchaseRecommendation": 6987,
      "ĠMARKER": 6988,
      "AutomationExecution": 6989,
      "Border": 6990,
      "DUC": 6991,
      "Findings": 6992,
      "Go": 6993,
      "High": 6994,
      "Lines": 6995,
      "MONTH": 6996,
      "STE": 6997,
      "Site": 6998,
      "Sample": 6999,
      "finding": 7000,
      "lf": 7001,
      "rhs": 7002,
      "uver": 7003,
      "ĠUN": 7004,
      "ĠRuntime": 7005,
      "arms": 7006,
      "Initi": 7007,
      "Insert": 7008,
      "Ġsim": 7009,
      "ĠSHA": 7010,
      "(\"<": 7011,
      "(\"\");": 7012,
      "Ġ\"\\": 7013,
      "icon": 7014,
      "icket": 7015,
      "TIES": 7016,
      "ĠgetJSType": 7017,
      "ParamName": 7018,
      "ĠAW": 7019,
      "ĠAd": 7020,
      "ĠAl": 7021,
      "ById": 7022,
      "EventId": 7023,
      "ctangle": 7024,
      "ROM": 7025,
      "Ġproxy": 7026,
      "pressions": 7027,
      "RIG": 7028,
      "Ġbegin": 7029,
      "ĠHE": 7030,
      "ServiceException": 7031,
      "Ġshow": 7032,
      "OPPOSI": 7033,
      "Snapshots": 7034,
      "ModelRequest": 7035,
      "Ġids": 7036,
      "leton": 7037,
      "Symbols": 7038,
      "getInstanceId": 7039,
      "ActivityTask": 7040,
      "ACKAGE": 7041,
      "lato": 7042,
      "ensation": 7043,
      "jsdoc": 7044,
      "Transformer": 7045,
      "Where": 7046,
      "Matrix": 7047,
      "WNER": 7048,
      "NormalDistributionType": 7049,
      "Ġrestore": 7050,
      "Ġchunks": 7051,
      "Ġdigit": 7052,
      "currency": 7053,
      "Ġignored": 7054,
      "HITRequest": 7055,
      "ATTRIBUTES": 7056,
      "Router": 7057,
      "UserPoolClientRequest": 7058,
      "isAssignable": 7059,
      "aiting": 7060,
      "Producer": 7061,
      "getReturnType": 7062,
      "getLayoutBounds": 7063,
      "38": 7064,
      "BACK": 7065,
      "Cert": 7066,
      "Direct": 7067,
      "GR": 7068,
      "SING": 7069,
      "Skip": 7070,
      "SCHEMA": 7071,
      "Stick": 7072,
      "True": 7073,
      "big": 7074,
      "description": 7075,
      "mask": 7076,
      "over": 7077,
      "symbol": 7078,
      "yFp": 7079,
      "Ġti": 7080,
      "ĠUtils": 7081,
      "shutdown": 7082,
      "reet": 7083,
      "rid": 7084,
      "color": 7085,
      "Ġsupport": 7086,
      "ĠSc": 7087,
      "abul": 7088,
      "Ġinner": 7089,
      "aved": 7090,
      "Ġstyle": 7091,
      "ocabul": 7092,
      "ĠgetResource": 7093,
      "Ġorig": 7094,
      "uses": 7095,
      "Executor": 7096,
      "Ġaudit": 7097,
      "Detector": 7098,
      "DataConfig": 7099,
      "ponent": 7100,
      "StatusFilters": 7101,
      "actions": 7102,
      "TargetsRequest": 7103,
      "getCardinality": 7104,
      "SourceSettings": 7105,
      "Pref": 7106,
      "Associated": 7107,
      "Modifiers": 7108,
      "nextObject": 7109,
      "LAS": 7110,
      "DistributionDataPoint": 7111,
      "missions": 7112,
      "enclosing": 7113,
      "letion": 7114,
      "Ġvalidator": 7115,
      "Parts": 7116,
      "Ġtokens": 7117,
      "ĠTransactionException": 7118,
      "Ġpool": 7119,
      "media": 7120,
      "ĠLinkedHashMap": 7121,
      "MembersRequest": 7122,
      "Hours": 7123,
      "ĠMappeableArrayContainer": 7124,
      "Ġcalc": 7125,
      "Ġappro": 7126,
      "POSITORY": 7127,
      "agnostics": 7128,
      "PlacementRequest": 7129,
      "ĠJOBID": 7130,
      "Ġhours": 7131,
      "Delegation": 7132,
      "iSCSIVolume": 7133,
      "Ġannotations": 7134,
      "Ġsubscribe": 7135,
      "pearance": 7136,
      "CookieStick": 7137,
      "Ġioe": 7138,
      "CookieStickiness": 7139,
      "Autom": 7140,
      "CLE": 7141,
      "CTED": 7142,
      "FALSE": 7143,
      "GP": 7144,
      "GAN": 7145,
      "Leg": 7146,
      "Sampling": 7147,
      "TLE": 7148,
      "Title": 7149,
      "Term": 7150,
      "YY": 7151,
      "fhir": 7152,
      "ito": 7153,
      "navigation": 7154,
      "pattern": 7155,
      "policies": 7156,
      "Ġ9": 7157,
      "inventory": 7158,
      "getFile": 7159,
      "getAccept": 7160,
      "isString": 7161,
      "Reporter": 7162,
      "delivery": 7163,
      "column": 7164,
      "Inf": 7165,
      "Into": 7166,
      "Ġsun": 7167,
      "ionType": 7168,
      "Ġdiff": 7169,
      "Ġoff": 7170,
      "atit": 7171,
      "orecast": 7172,
      "ĠAction": 7173,
      "poch": 7174,
      "ConfigurationType": 7175,
      "ConfigurationResult": 7176,
      "JobSummaries": 7177,
      "Stats": 7178,
      "ators": 7179,
      "[]>": 7180,
      "SED": 7181,
      "moo": 7182,
      "TagFilter": 7183,
      "SpDef": 7184,
      "getDuration": 7185,
      "getLength": 7186,
      "SCA": 7187,
      "SSWORD": 7188,
      "ĠScriptBuilder": 7189,
      "PARAM": 7190,
      "Encrypted": 7191,
      "placement": 7192,
      "KET": 7193,
      "Ġknow": 7194,
      "ĠRetry": 7195,
      "EntityRecognizer": 7196,
      "ProcessInstance": 7197,
      "Ġcalled": 7198,
      "rawlers": 7199,
      "DATETIME": 7200,
      "Graphql": 7201,
      "Balancers": 7202,
      "TopLevel": 7203,
      "Delta": 7204,
      "UsageRequest": 7205,
      "Closed": 7206,
      "Ġdeclaration": 7207,
      "DataSourceRequest": 7208,
      "UserPoolRequest": 7209,
      "tebookInstance": 7210,
      "Ġencoding": 7211,
      "Move": 7212,
      "isPresent": 7213,
      "PONSE": 7214,
      "MatchTuples": 7215,
      "ĠACCEP": 7216,
      "Ġdifferent": 7217,
      "documentRootEClass": 7218,
      "Amazon": 7219,
      "BUT": 7220,
      "Benchmark": 7221,
      "Ca": 7222,
      "Ctx": 7223,
      "Csv": 7224,
      "Ljava": 7225,
      "Wait": 7226,
      "aid": 7227,
      "dim": 7228,
      "fully": 7229,
      "hb": 7230,
      "jNode": 7231,
      "lesRequest": 7232,
      "pullRequest": 7233,
      "Ġ()": 7234,
      "Ġgs": 7235,
      "Ġund": 7236,
      "instrument": 7237,
      "getEncryption": 7238,
      "getJSType": 7239,
      "Ġpage": 7240,
      "toMaybe": 7241,
      "References": 7242,
      "InProgress": 7243,
      "change": 7244,
      "added": 7245,
      "aped": 7246,
      "Ġinvocation": 7247,
      "IdFormat": 7248,
      "ValObj": 7249,
      "ĠgetObject": 7250,
      "REA": 7251,
      "extract": 7252,
      "ConfigRules": 7253,
      "ttps": 7254,
      "Ġdevice": 7255,
      "Ġdecode": 7256,
      "getSort": 7257,
      "Ġprovided": 7258,
      "URITY": 7259,
      "StatusList": 7260,
      "ParameterGroup": 7261,
      "Running": 7262,
      "Algo": 7263,
      "CodeableConcept": 7264,
      "ĠEOPPOSI": 7265,
      "ĠHO": 7266,
      "AttributeName": 7267,
      "ItemResult": 7268,
      "Ġwhat": 7269,
      "Formation": 7270,
      "calable": 7271,
      "Workspaces": 7272,
      "useSourceInfo": 7273,
      "ĠmethodDescription": 7274,
      "Signed": 7275,
      "parser": 7276,
      "ĠSTACK": 7277,
      "ĠClassFile": 7278,
      "Append": 7279,
      "Generation": 7280,
      "track": 7281,
      "Products": 7282,
      "ialog": 7283,
      "CustomKey": 7284,
      "GROUPS": 7285,
      "Ġspecial": 7286,
      "Ġbld": 7287,
      "ContactComponent": 7288,
      "Converters": 7289,
      "COMPLETE": 7290,
      "WorkspaceRequests": 7291,
      "Mouse": 7292,
      "ĠSECURITY": 7293,
      "DEVENTID": 7294,
      "roadcast": 7295,
      "CACertificate": 7296,
      "SPECI": 7297,
      "ticipant": 7298,
      "ĠEOPPOSITE": 7299,
      "95": 7300,
      "IMP": 7301,
      "NFSFileShare": 7302,
      "PLAY": 7303,
      "RUN": 7304,
      "RulesRequest": 7305,
      "Suffix": 7306,
      "Tess": 7307,
      "Visit": 7308,
      "Violation": 7309,
      "Xss": 7310,
      "ued": 7311,
      "uend": 7312,
      "Ġ},": 7313,
      "regex": 7314,
      "getZone": 7315,
      "getApp": 7316,
      "getChaincode": 7317,
      "Ġpresent": 7318,
      "Ġpayment": 7319,
      "orld": 7320,
      "Incoming": 7321,
      "idn": 7322,
      "ĠtoString": 7323,
      "ĠSup": 7324,
      "ListObject": 7325,
      "Ġarity": 7326,
      "Ġdout": 7327,
      "Ġdestination": 7328,
      "Ġdesc": 7329,
      "ResultRequest": 7330,
      "ResultType": 7331,
      "ToBytes": 7332,
      "ĠStringUtils": 7333,
      "ĠCopy": 7334,
      "Ġlandmark": 7335,
      "Ġremaining": 7336,
      "veChaincodeDefinition": 7337,
      "ĠBigDecimal": 7338,
      "InstanceIds": 7339,
      "InstanceDetails": 7340,
      "ĠexecuteModify": 7341,
      "ĠwithAttributes": 7342,
      "concept": 7343,
      "Assert": 7344,
      "Comparator": 7345,
      "Statements": 7346,
      "redshift": 7347,
      "ForMy": 7348,
      "ĠVar": 7349,
      "AttributeType": 7350,
      "ĉĉĉĉĉĉĉ": 7351,
      "angular": 7352,
      "ScriptPattern": 7353,
      "Weighting": 7354,
      "Ġyou": 7355,
      "web": 7356,
      "bsBlockDevice": 7357,
      "Bean": 7358,
      "ĠShort": 7359,
      "IZER": 7360,
      "Ġdigits": 7361,
      "ĠINSTANCEID": 7362,
      "SQLException": 7363,
      "Ġagent": 7364,
      "CidrBlock": 7365,
      "SocketAddress": 7366,
      "SqlInjection": 7367,
      "IndexedSearchParam": 7368,
      "GORITH": 7369,
      "Regular": 7370,
      "WPF": 7371,
      "Retrieval": 7372,
      "veChaincodeDefinitionForMy": 7373,
      "veChaincodeDefinitionForMyOrg": 7374,
      "CTOR": 7375,
      "Diff": 7376,
      "EAR": 7377,
      "Final": 7378,
      "ILAB": 7379,
      "LS": 7380,
      "Notifications": 7381,
      "SUC": 7382,
      "UI": 7383,
      "core": 7384,
      "lag": 7385,
      "mInputView": 7386,
      "skip": 7387,
      "tab": 7388,
      "ĠUse": 7389,
      "onus": 7390,
      "ese": 7391,
      "Ġtyp": 7392,
      "getGateway": 7393,
      "isE": 7394,
      "Ġpending": 7395,
      "rier": 7396,
      "Ġcounter": 7397,
      "ifference": 7398,
      "Ġrv": 7399,
      "edImage": 7400,
      "abric": 7401,
      "Ġmask": 7402,
      "ĠPredicate": 7403,
      "getMap": 7404,
      "email": 7405,
      "Ġexact": 7406,
      "Ġ!(": 7407,
      "Ġlink": 7408,
      "ĠIO": 7409,
      "KeyUsage": 7410,
      "ĠBIT": 7411,
      "IDENTIFIER": 7412,
      "InstanceType": 7413,
      "Ġconf": 7414,
      "ĠiChronology": 7415,
      "Ġcomb": 7416,
      "ĠFilter": 7417,
      "ĠLine": 7418,
      "getSession": 7419,
      "DEF": 7420,
      "Locations": 7421,
      "MethodTree": 7422,
      "FieldAccess": 7423,
      "getDouble": 7424,
      "Ġweight": 7425,
      "contact": 7426,
      "STACK": 7427,
      "QueryInstalled": 7428,
      "Ġenum": 7429,
      "getFirst": 7430,
      "TagsTo": 7431,
      "ByteString": 7432,
      "DeploymentGroupRequest": 7433,
      "BatchPrediction": 7434,
      "ĠdefaultCase": 7435,
      "URLConnection": 7436,
      "resourceShare": 7437,
      "Ġmatching": 7438,
      "Ġmatched": 7439,
      "FleetRequests": 7440,
      "tsym": 7441,
      "interval": 7442,
      "LevelEncryption": 7443,
      "APIS": 7444,
      "tagType": 7445,
      "replaceChild": 7446,
      "replaceAll": 7447,
      "ASTHelpers": 7448,
      "creen": 7449,
      "00000000": 7450,
      "Ġcollection": 7451,
      "Ġfragment": 7452,
      "defaultMapper": 7453,
      "ColumnIndex": 7454,
      "ĠruleFactory": 7455,
      "RAW": 7456,
      "Ġoperand": 7457,
      "CloudWatch": 7458,
      "TIFICATION": 7459,
      "ĠProtos": 7460,
      "Ġmove": 7461,
      "Syntax": 7462,
      "Obser": 7463,
      "factory": 7464,
      "////////": 7465,
      "DetectionJobPropertiesList": 7466,
      "inished": 7467,
      "dbc": 7468,
      "SESSION": 7469,
      "OrganizationalUnit": 7470,
      "ĠCONTENT": 7471,
      "Ġscalar": 7472,
      "EXTENSION": 7473,
      "Schedules": 7474,
      "ILABILITY": 7475,
      "75": 7476,
      "Cast": 7477,
      "CATED": 7478,
      "GROUND": 7479,
      "NatGateway": 7480,
      "PU": 7481,
      "VATE": 7482,
      "VPCE": 7483,
      "bundle": 7484,
      "gon": 7485,
      "gree": 7486,
      "lines": 7487,
      "lazy": 7488,
      "merge": 7489,
      "nable": 7490,
      "sAnd": 7491,
      "ĠčĊ": 7492,
      "ĠOnly": 7493,
      "should": 7494,
      "getValues": 7495,
      "getEnabled": 7496,
      "isValid": 7497,
      "any": 7498,
      "ants": 7499,
      "decode": 7500,
      "aseline": 7501,
      "Inline": 7502,
      "InRange": 7503,
      "ĠSUP": 7504,
      "(\":": 7505,
      "Ġbig": 7506,
      "acesRequest": 7507,
      "loom": 7508,
      "Ġdrop": 7509,
      "uman": 7510,
      "ĠgetValues": 7511,
      "ĠsetResource": 7512,
      "users": 7513,
      "ĠĠĠĠĠĠĠĠĠĠĠĠĠĠĠĠĠĠĠĠĠĠĠĠĠĠĠĠĠ": 7514,
      "Ġrequires": 7515,
      "ARRAY": 7516,
      "Ġdebug": 7517,
      "ĠLANGUAGE": 7518,
      "Compared": 7519,
      "ffering": 7520,
      "urrency": 7521,
      "ForLoaded": 7522,
      "getPar": 7523,
      "ParametersRequest": 7524,
      "FieldLevelEncryption": 7525,
      "++,": 7526,
      "Sha": 7527,
      "Ġweighting": 7528,
      "AddressBook": 7529,
      "NotExists": 7530,
      "ĠsuperType": 7531,
      "ĠtargetNode": 7532,
      "AssociationsRequest": 7533,
      "instanceGroup": 7534,
      "Chrono": 7535,
      "OperationOutcome": 7536,
      "inputs": 7537,
      "econds": 7538,
      "NetworkAcl": 7539,
      "Transactions": 7540,
      "NODE": 7541,
      "disable": 7542,
      "getAws": 7543,
      "ĠtagType": 7544,
      "fieldType": 7545,
      "EngineVersions": 7546,
      "ScheduledAudit": 7547,
      "MetaData": 7548,
      "ĠUSERPOOLID": 7549,
      "Ġfraction": 7550,
      "Ġorderer": 7551,
      "Ġabout": 7552,
      "cedure": 7553,
      "ĠBufferUtil": 7554,
      "Ġagain": 7555,
      "VpcEndpointConnection": 7556,
      "Amount": 7557,
      "ffiliationException": 7558,
      "Endorser": 7559,
      "olygon": 7560,
      "CENTER": 7561,
      "SMBFileShare": 7562,
      "lastIndexOf": 7563,
      "getUserPoolId": 7564,
      "latoRegular": 7565,
      "(-": 7566,
      "Caption": 7567,
      "Hierarchy": 7568,
      "IAL": 7569,
      "Lag": 7570,
      "LDAP": 7571,
      "OLE": 7572,
      "Pids": 7573,
      "RULE": 7574,
      "RDD": 7575,
      "Successful": 7576,
      "TP": 7577,
      "UID": 7578,
      "codes": 7579,
      "dit": 7580,
      "fontSize": 7581,
      "hend": 7582,
      "necessary": 7583,
      "vcache": 7584,
      "ĠChaincode": 7585,
      "shape": 7586,
      "getElement": 7587,
      "getResources": 7588,
      "isNot": 7589,
      "isStatic": 7590,
      "Ġpadding": 7591,
      "toLowerCase": 7592,
      "ultim": 7593,
      "Ġthreshold": 7594,
      "Ġstorage": 7595,
      "ading": 7596,
      "Ġbest": 7597,
      "ometry": 7598,
      "ely": 7599,
      "Ġmeta": 7600,
      "Ġmismatch": 7601,
      "ĠPr": 7602,
      "getMetric": 7603,
      "Environments": 7604,
      "Challenge": 7605,
      "ĠDon": 7606,
      "ĠCUR": 7607,
      "ĠCache": 7608,
      "ĠCrypto": 7609,
      "REF": 7610,
      "ENCY": 7611,
      "ĠTable": 7612,
      "ĠTRA": 7613,
      "serial": 7614,
      "Ġresp": 7615,
      "Contains": 7616,
      "Deviation": 7617,
      "ResourceDefinition": 7618,
      "ĠFILE": 7619,
      "StateRequest": 7620,
      "movable": 7621,
      "ipv": 7622,
      "exception": 7623,
      "COM": 7624,
      "SettingsUpdate": 7625,
      "ParametersEClass": 7626,
      "EndpointsRequest": 7627,
      "Shar": 7628,
      "calendar": 7629,
      "minutes": 7630,
      "DateFormat": 7631,
      "ACCESS": 7632,
      "fileName": 7633,
      "Modifications": 7634,
      "Worker": 7635,
      "TIMEOUT": 7636,
      "<?>>": 7637,
      "Operator": 7638,
      "ImageBuilder": 7639,
      "ĠGATEWAY": 7640,
      "Checks": 7641,
      "jectAlternative": 7642,
      "VALUES": 7643,
      "ĠRESTA": 7644,
      "QUES": 7645,
      "Ġprocessing": 7646,
      "STRUC": 7647,
      "batchGet": 7648,
      "Refresh": 7649,
      "Aggregation": 7650,
      "Ġadmin": 7651,
      "applications": 7652,
      "MetaArgs": 7653,
      "Revisions": 7654,
      "notify": 7655,
      "ĠKit": 7656,
      "ODY": 7657,
      "Ġparts": 7658,
      "PortfolioShare": 7659,
      "trahend": 7660,
      "getClientId": 7661,
      "CredentialsRequest": 7662,
      "IdentityProviderDefinition": 7663,
      "trigger": 7664,
      "Fpga": 7665,
      "Slash": 7666,
      "Renderer": 7667,
      "ApnsVoip": 7668,
      "javascript": 7669,
      "ceiveMessage": 7670,
      "ĠPoint": 7671,
      "IDConnectProvider": 7672,
      "INCIP": 7673,
      "ibling": 7674,
      "GANIZATION": 7675,
      "(_": 7676,
      "05": 7677,
      "Catch": 7678,
      "Cached": 7679,
      "Dem": 7680,
      "EW": 7681,
      "EMPTY": 7682,
      "LATION": 7683,
      "PLA": 7684,
      "Rotation": 7685,
      "before": 7686,
      "ger": 7687,
      "off": 7688,
      "Ġatt": 7689,
      "ĠIdentity": 7690,
      "esKey": 7691,
      "allocate": 7692,
      "getItem": 7693,
      "getEmail": 7694,
      "isD": 7695,
      "Ġps": 7696,
      "entation": 7697,
      "tori": 7698,
      "Ġeven": 7699,
      "ingConfiguration": 7700,
      "itness": 7701,
      "ager": 7702,
      "Conformance": 7703,
      "Ġrequests": 7704,
      "ĠsetUser": 7705,
      "setInt": 7706,
      "Ġreg": 7707,
      "ĠexecuteStop": 7708,
      "ĠNOT": 7709,
      "ROLE": 7710,
      "Ġprovision": 7711,
      "Runs": 7712,
      "existing": 7713,
      "ĠcreateEClass": 7714,
      "Through": 7715,
      "getPipeline": 7716,
      "valueText": 7717,
      "OptionsRequest": 7718,
      "getLabel": 7719,
      "Accessor": 7720,
      "subnet": 7721,
      "Manip": 7722,
      "BaseType": 7723,
      "ĠRULE": 7724,
      "AssociationStatus": 7725,
      "getRepository": 7726,
      "DocumentVersion": 7727,
      "Urls": 7728,
      "ĠfieldName": 7729,
      "VarName": 7730,
      "Ġretrieve": 7731,
      "Levels": 7732,
      "comment": 7733,
      "prev": 7734,
      "UMN": 7735,
      "ĠfunctionType": 7736,
      "Ġoutputs": 7737,
      "ĠMethodSymbol": 7738,
      "ĠCONTAINER": 7739,
      "Optim": 7740,
      "ĠInitial": 7741,
      "getLastUpdated": 7742,
      "initEClass": 7743,
      "ĠformatString": 7744,
      "ĠCODE": 7745,
      "getStatusCode": 7746,
      "groundColor": 7747,
      "MatchSets": 7748,
      "replacement": 7749,
      "ASSIGN": 7750,
      "Ġtransactions": 7751,
      "ieContainer": 7752,
      "ĠrightType": 7753,
      "ElasticsearchDomain": 7754,
      "getStartTime": 7755,
      "IZED": 7756,
      "getInclude": 7757,
      "PrivateVirtualInterface": 7758,
      "SERVER": 7759,
      "Canvas": 7760,
      "Descriptors": 7761,
      "replicationInstance": 7762,
      "fragment": 7763,
      "ĠTimeUnit": 7764,
      "getErrorCode": 7765,
      "Utilization": 7766,
      "Counters": 7767,
      "getDisplay": 7768,
      "ĠSTARTTIME": 7769,
      "Monitoring": 7770,
      "SideEff": 7771,
      "Ġtrigger": 7772,
      "Directories": 7773,
      "Absent": 7774,
      "Handshake": 7775,
      "licenseConfiguration": 7776,
      "RESHOLD": 7777,
      "APISignature": 7778,
      "58": 7779,
      ">().": 7780,
      "Bad": 7781,
      "Cal": 7782,
      "Creation": 7783,
      "Catalog": 7784,
      "Drawable": 7785,
      "Dhcp": 7786,
      "GMENT": 7787,
      "IELD": 7788,
      "IdemixUtils": 7789,
      "Li": 7790,
      "Migration": 7791,
      "RGE": 7792,
      "SP": 7793,
      "ZONE": 7794,
      "destination": 7795,
      "slot": 7796,
      "wx": 7797,
      "wait": 7798,
      "Ġ$": 7799,
      "Ġ~": 7800,
      "ĠInput": 7801,
      "ĠInt": 7802,
      "ĠGET": 7803,
      "atype": 7804,
      "getAd": 7805,
      "getRule": 7806,
      "getLocal": 7807,
      "isk": 7808,
      "ural": 7809,
      "Revocation": 7810,
      "ano": 7811,
      "anup": 7812,
      "Ġequal": 7813,
      "iform": 7814,
      "asEr": 7815,
      "Ġraw": 7816,
      "Ingress": 7817,
      "Incompatible": 7818,
      "ĠreturnType": 7819,
      "istribution": 7820,
      "Ġsorted": 7821,
      "adjust": 7822,
      "Ġbinary": 7823,
      "ONG": 7824,
      "Ġincoming": 7825,
      "Ġwrap": 7826,
      "eme": 7827,
      "emon": 7828,
      "sets": 7829,
      "ĠComm": 7830,
      "ĠCalendar": 7831,
      "REE": 7832,
      "izations": 7833,
      "ressed": 7834,
      "ĠTask": 7835,
      "ured": 7836,
      "EventTypes": 7837,
      "StreamNames": 7838,
      "TagFilters": 7839,
      "UserProfileRequest": 7840,
      "Throw": 7841,
      "LIMIT": 7842,
      "FacesRequest": 7843,
      "ISection": 7844,
      "++];": 7845,
      "OutputRequest": 7846,
      "legate": 7847,
      "Ġuntil": 7848,
      "ĠĠĠĠĠĠĠĠĠĠĠĠĠĠĠĠĠĠĠĠĠĠĠĠĠĠĠĠĠĠĠĠĠĠĠĠĠĠĠĠĠ": 7849,
      "theValue": 7850,
      "ModelPackage": 7851,
      "Ġmaximum": 7852,
      "Using": 7853,
      "FFER": 7854,
      "getRegion": 7855,
      "getMaximum": 7856,
      "PROVIDER": 7857,
      "Ġcallee": 7858,
      "Ġpositive": 7859,
      "Ġsplit": 7860,
      "VarArgs": 7861,
      "inputStream": 7862,
      "Ġsigner": 7863,
      "Organ": 7864,
      "ĠCOUNT": 7865,
      "IfAbsent": 7866,
      "Controller": 7867,
      "ĠMETRIC": 7868,
      "FORE": 7869,
      "IFY": 7870,
      "TransitGatewayVpc": 7871,
      "ĠLOGGER": 7872,
      "ENDOR": 7873,
      "RelationalDatabaseRequest": 7874,
      "Ġyears": 7875,
      "Attempted": 7876,
      "LayerVersion": 7877,
      "Chunks": 7878,
      "ĠsetSupported": 7879,
      "LicenseSpecifications": 7880,
      "CertificateAuthorityRequest": 7881,
      "Ġtraversal": 7882,
      "rangeStart": 7883,
      "FacesContext": 7884,
      "Ġrounding": 7885,
      "Ġdesired": 7886,
      "RateBased": 7887,
      "pollLast": 7888,
      "DEVENTATTRIBUTES": 7889,
      "ĠBufferedImage": 7890,
      "ĠDiyFp": 7891,
      "Packages": 7892,
      "aleIp": 7893,
      "ĠAssoci": 7894,
      "Applied": 7895,
      "Compression": 7896,
      "INDOW": 7897,
      "hanced": 7898,
      "ĠCLOUD": 7899,
      "GPPeer": 7900,
      "GORITHM": 7901,
      "ultimap": 7902,
      "264": 7903,
      "Ab": 7904,
      "CP": 7905,
      "DM": 7906,
      "Egl": 7907,
      "IPE": 7908,
      "PUBLIC": 7909,
      "SW": 7910,
      "Sk": 7911,
      "Tiff": 7912,
      "Vocabul": 7913,
      "Wrap": 7914,
      "dir": 7915,
      "eet": 7916,
      "flat": 7917,
      "hose": 7918,
      "mine": 7919,
      "negative": 7920,
      "rp": 7921,
      "Ġleg": 7922,
      "ĠCharacter": 7923,
      "ĠChoice": 7924,
      "altime": 7925,
      "enum": 7926,
      "getAs": 7927,
      "getQuery": 7928,
      "getEntity": 7929,
      "getEdge": 7930,
      "Ġne": 7931,
      "RemoteAccessSession": 7932,
      "dev": 7933,
      "Ing": 7934,
      "RequestToken": 7935,
      "Conference": 7936,
      "Undefined": 7937,
      "Probability": 7938,
      "ĠgetPeriodType": 7939,
      "ĠDet": 7940,
      "Ġexists": 7941,
      "Ġoverride": 7942,
      "Ġless": 7943,
      "ĠImp": 7944,
      "Ġreplication": 7945,
      "ĠTag": 7946,
      "Colum": 7947,
      "ĠModel": 7948,
      "EventSource": 7949,
      "ather": 7950,
      "Pop": 7951,
      "SEARCH": 7952,
      "illa": 7953,
      "TaskData": 7954,
      "points": 7955,
      "ĠVO": 7956,
      "Than": 7957,
      "MethodDescription": 7958,
      "Intersection": 7959,
      "Transition": 7960,
      "OutputSettings": 7961,
      "ĠbyteBuff": 7962,
      "ĠstartIndex": 7963,
      "OPnum": 7964,
      "theEntity": 7965,
      "DomainValidation": 7966,
      "StackRequest": 7967,
      "Management": 7968,
      "ILD": 7969,
      "etermine": 7970,
      "HandlerContext": 7971,
      "Ġprepare": 7972,
      "HashKey": 7973,
      "getRelationalDatabase": 7974,
      "Ġactivity": 7975,
      "ĠINCLUDE": 7976,
      "ĠENCRYPTION": 7977,
      "Ġaltern": 7978,
      "Ġalias": 7979,
      "interface": 7980,
      "previous": 7981,
      "DestinationUpdate": 7982,
      "Ġnothing": 7983,
      "VolumeRequest": 7984,
      "getAbs": 7985,
      "ĠLOCATION": 7986,
      "versions": 7987,
      "ControlParameters": 7988,
      "Ġadapter": 7989,
      "WorkflowExecutionFailedEventAttributes": 7990,
      "latform": 7991,
      "transitGateway": 7992,
      "TRANS": 7993,
      "ĠreportChangeToEnclosingScope": 7994,
      "ContactRequest": 7995,
      "AvailabilityZone": 7996,
      "ĠPeriodFormatter": 7997,
      "Whitespace": 7998,
      "NormalDistribution": 7999,
      "Normalized": 8000,
      "Variant": 8001,
      "TLDevice": 8002,
      "TLANGUAGE": 8003,
      "StaticIp": 8004,
      "Dimensions": 8005,
      "generate": 8006,
      "ReadablePartial": 8007,
      "Ami": 8008,
      "Ġtopic": 8009,
      "flush": 8010,
      "getCreatedAt": 8011,
      "CURRENCY": 8012,
      "Speed": 8013,
      "dapConfig": 8014,
      "Ġannotated": 8015,
      "ĠCREATEDAT": 8016,
      "months": 8017,
      "ĠORGANIZATION": 8018,
      "hours": 8019,
      "Drift": 8020,
      "ITIAL": 8021,
      "BLENAME": 8022,
      "deemScript": 8023,
      "ĠUnsupportedOperationException": 8024,
      "ĠIssueType": 8025,
      "getAcceptLanguage": 8026,
      "ĠACCEPTLANGUAGE": 8027,
      "ĠAssociate": 8028,
      "Grid": 8029,
      "More": 8030,
      "OTAUpdate": 8031,
      "Vg": 8032,
      "cursor": 8033,
      "cmd": 8034,
      "dr": 8035,
      "directConnectGateway": 8036,
      "gameSession": 8037,
      "hn": 8038,
      "lane": 8039,
      "paces": 8040,
      "priority": 8041,
      "sampling": 8042,
      "ĠLE": 8043,
      "ĠRule": 8044,
      "Ġstandard": 8045,
      "etSocketAddress": 8046,
      "shared": 8047,
      "getParameterValue": 8048,
      "Ġnice": 8049,
      "urpose": 8050,
      "Removed": 8051,
      "Related": 8052,
      "Representation": 8053,
      "Ġeither": 8054,
      "Exponential": 8055,
      "Ġfill": 8056,
      "ĠSignature": 8057,
      "StringUtils": 8058,
      "Ġ\"\\\"": 8059,
      "ONT": 8060,
      "ERVED": 8061,
      "putAll": 8062,
      "ĠCluster": 8063,
      "ĠĠĠĠĠĠĠĠĠĠĠĠĠĠĠĠĠĠĠĠĠĠĠĠĠĠĠĠĠĠ": 8064,
      "Ġreal": 8065,
      "Ġrelative": 8066,
      "Keyword": 8067,
      "andling": 8068,
      "ĠcaseFile": 8069,
      "conf": 8070,
      "createClusterRequest": 8071,
      "ALING": 8072,
      "ALTH": 8073,
      "ROLEARN": 8074,
      "proxy": 8075,
      "ImagesRequest": 8076,
      "VersionId": 8077,
      "lowbits": 8078,
      "Quote": 8079,
      "getPl": 8080,
      "TYPES": 8081,
      "ĠaddTo": 8082,
      "Shared": 8083,
      "ARNS": 8084,
      "calc": 8085,
      "Special": 8086,
      "OnExit": 8087,
      "iliary": 8088,
      "Pools": 8089,
      "MetricSpecification": 8090,
      "Datastore": 8091,
      "ĠREPOSITORY": 8092,
      "UnitFlow": 8093,
      "Ġimplicit": 8094,
      "Documents": 8095,
      "Ġclasses": 8096,
      "KEYS": 8097,
      "VpcClassicLink": 8098,
      "getBoolean": 8099,
      "trainingJob": 8100,
      "ĠImport": 8101,
      "ScalingPolicy": 8102,
      "Ports": 8103,
      "tagResourceRequest": 8104,
      "ĠImmutableMap": 8105,
      "ĠAPP": 8106,
      "common": 8107,
      "Ġcountry": 8108,
      "RetryPolicy": 8109,
      "ParameterTypeEClass": 8110,
      "DurationFieldType": 8111,
      "qualification": 8112,
      "Console": 8113,
      "UNDLE": 8114,
      "ReturnType": 8115,
      "ĠinitGraphics": 8116,
      "PasswordRequest": 8117,
      "notNull": 8118,
      "ProxyInstance": 8119,
      "Materials": 8120,
      "Ġbackup": 8121,
      "ĠLocale": 8122,
      "ĠLocalDateTime": 8123,
      "ĠAmazonClientException": 8124,
      "years": 8125,
      "getSubnet": 8126,
      "generated": 8127,
      "otherEnd": 8128,
      "Ġexecutor": 8129,
      "ĠSUBNE": 8130,
      "lining": 8131,
      "Category": 8132,
      "Ġmarker": 8133,
      "dapIdentityProviderDefinition": 8134,
      "ĠAddressFormatException": 8135,
      "ĠNetworkConfigurationException": 8136,
      "Ġobserver": 8137,
      "HostedZone": 8138,
      "PdfFile": 8139,
      "ĠDefault": 8140,
      "uxiliary": 8141,
      "crete": 8142,
      "SSOCIATION": 8143,
      "SCALE": 8144,
      "toriesRequest": 8145,
      "ĠImplement": 8146,
      "Cipher": 8147,
      "Equal": 8148,
      "Gap": 8149,
      "LAT": 8150,
      "Master": 8151,
      "Pixel": 8152,
      "RIDE": 8153,
      "TWORK": 8154,
      "_.": 8155,
      "broker": 8156,
      "destinations": 8157,
      "hStorage": 8158,
      "mh": 8159,
      "numeric": 8160,
      "rise": 8161,
      "su": 8162,
      "sections": 8163,
      "window": 8164,
      "ĠConfig": 8165,
      "Ġtitle": 8166,
      "arge": 8167,
      "getBase": 8168,
      "getRoot": 8169,
      "getAuthentication": 8170,
      "isInterface": 8171,
      "ased": 8172,
      "aming": 8173,
      "Initiate": 8174,
      "Ġfetch": 8175,
      "ĠSource": 8176,
      "ĠScope": 8177,
      "ĠSCHEMA": 8178,
      "advance": 8179,
      "Ġ\"%": 8180,
      "ableType": 8181,
      "TypeLabels": 8182,
      "iction": 8183,
      "Ġwere": 8184,
      "Ġdir": 8185,
      "Changes": 8186,
      "TIVI": 8187,
      "ĠgetPane": 8188,
      "Ġsetter": 8189,
      "setProperty": 8190,
      "NodeType": 8191,
      "Ġpassword": 8192,
      "Ġrec": 8193,
      "geo": 8194,
      "Timeline": 8195,
      "rant": 8196,
      "Ġ12": 8197,
      "ĠNot": 8198,
      "ĠFast": 8199,
      "getSystem": 8200,
      "RunContainers": 8201,
      "PolicyTypes": 8202,
      "getPr": 8203,
      "ErrorMessage": 8204,
      "ĠHTTP": 8205,
      "Factor": 8206,
      "Transport": 8207,
      "Ġweeks": 8208,
      "GatewayRequest": 8209,
      "MetadataRequest": 8210,
      "AccessKey": 8211,
      "subtract": 8212,
      "scription": 8213,
      "VERIFY": 8214,
      "SecurityProfile": 8215,
      "Trust": 8216,
      "BUG": 8217,
      "Authority": 8218,
      "Ġmodifier": 8219,
      "Processes": 8220,
      "BackupSelection": 8221,
      "Ġsubnetwork": 8222,
      "OperationTypeEnum": 8223,
      "jobs": 8224,
      "ĠProperties": 8225,
      "ProposalBuilder": 8226,
      "Provisioning": 8227,
      "Restful": 8228,
      "Ġusers": 8229,
      "FailedEventDetails": 8230,
      "Minute": 8231,
      "Ġformatter": 8232,
      "Builders": 8233,
      "peableRoaringArray": 8234,
      "VpnConnection": 8235,
      "getUsername": 8236,
      "Ġrefresh": 8237,
      "ĠattributeName": 8238,
      "enses": 8239,
      "Ġcomponents": 8240,
      "Ġdiagnostics": 8241,
      "execution": 8242,
      "INTERVAL": 8243,
      "mediationExecution": 8244,
      "ĠSERVI": 8245,
      "SERVICE": 8246,
      "Ġbootstrap": 8247,
      "GISTR": 8248,
      "QualificationTypeRequest": 8249,
      "DeliveryStreamRequest": 8250,
      "getCreationDate": 8251,
      "ĠCREATIONDATE": 8252,
      "ĠCodeableConcept": 8253,
      "DevEndpointRequest": 8254,
      "ĠAUTHENTICATION": 8255,
      "Effective": 8256,
      "Invoke": 8257,
      "getDeploymentId": 8258,
      "ĠrouteProgress": 8259,
      "Ġcharacters": 8260,
      "DecisionAttributes": 8261,
      "SAML": 8262,
      "LINK": 8263,
      "eInverseRemove": 8264,
      "ilestone": 8265,
      "atitude": 8266,
      ";}": 8267,
      "AstNode": 8268,
      "Bag": 8269,
      "Cele": 8270,
      "GATEWAY": 8271,
      "Hub": 8272,
      "Hint": 8273,
      "HTTP": 8274,
      "IST": 8275,
      "MAN": 8276,
      "Mean": 8277,
      "SSE": 8278,
      "Vector": 8279,
      "VPC": 8280,
      "[(": 8281,
      "auto": 8282,
      "bad": 8283,
      "campaign": 8284,
      "eSet": 8285,
      "holder": 8286,
      "payload": 8287,
      "sRoute": 8288,
      "scale": 8289,
      "Ġu": 8290,
      "Ġaw": 8291,
      "ĠEvent": 8292,
      "ĠInterval": 8293,
      "eros": 8294,
      "onet": 8295,
      "rees": 8296,
      "getColor": 8297,
      "getEnvironment": 8298,
      "isSubtype": 8299,
      "Ġpop": 8300,
      "Relative": 8301,
      "rientation": 8302,
      "ĠeSet": 8303,
      "Ġrandom": 8304,
      "ĠnewNode": 8305,
      "ĠnewCapacity": 8306,
      "Ġsep": 8307,
      "Ġsuccess": 8308,
      "Ġscale": 8309,
      "Const": 8310,
      "Ġvisi": 8311,
      "Ġ\"\"": 8312,
      "ueprint": 8313,
      "elf": 8314,
      "Ġmid": 8315,
      "Ġmedia": 8316,
      "Arr": 8317,
      "ĠPIPE": 8318,
      "oda": 8319,
      "ERATOR": 8320,
      "TITY": 8321,
      "TIFAC": 8322,
      "ĠDo": 8323,
      "NodeTraversal": 8324,
      "ĠJSError": 8325,
      "atio": 8326,
      "ĠintValue": 8327,
      "TARGET": 8328,
      "ĠAND": 8329,
      "converter": 8330,
      "Ġchanged": 8331,
      "Ġresize": 8332,
      "Ġdecoded": 8333,
      "Ġdeleted": 8334,
      "ConfigurationUpdate": 8335,
      "getScope": 8336,
      "TokenRequest": 8337,
      "StatusDetails": 8338,
      "ContextFactory": 8339,
      "getPer": 8340,
      "Span": 8341,
      "CodeRequest": 8342,
      "ucceeded": 8343,
      "ItemStack": 8344,
      "Plain": 8345,
      "Ġshutdown": 8346,
      "Ġunion": 8347,
      "SecurityProfileRequest": 8348,
      "Decor": 8349,
      "Ġminus": 8350,
      "VpcLink": 8351,
      "Resolve": 8352,
      "JsonValue": 8353,
      "Systems": 8354,
      "Outgoing": 8355,
      "Ġotherwise": 8356,
      "IOD": 8357,
      "organization": 8358,
      "ModuleSpec": 8359,
      "CredentialsProvider": 8360,
      "ĠgetMin": 8361,
      "transfer": 8362,
      "ĠhttpClient": 8363,
      "Ġconverted": 8364,
      "ĠCHECK": 8365,
      "ĠCHANNEL": 8366,
      "####": 8367,
      "ĠSERVER": 8368,
      "Ġnamespace": 8369,
      "Ġoperations": 8370,
      "Ġauthoriz": 8371,
      "Ġconsider": 8372,
      "MARY": 8373,
      "PlayerSessions": 8374,
      "getDeclared": 8375,
      "Adjustment": 8376,
      "ĠReadable": 8377,
      "ĠCONNECTION": 8378,
      "kewed": 8379,
      "ectivityInfo": 8380,
      "RIGHT": 8381,
      "mooth": 8382,
      "SUCCESS": 8383,
      "ComparedCommit": 8384,
      "\"+": 8385,
      "265": 8386,
      "AFTER": 8387,
      "BusinessReport": 8388,
      "Currency": 8389,
      "Float": 8390,
      "Iops": 8391,
      "Known": 8392,
      "MD": 8393,
      "Mut": 8394,
      "Other": 8395,
      "Own": 8396,
      "POR": 8397,
      "Priv": 8398,
      "Random": 8399,
      "Ratio": 8400,
      "Sm": 8401,
      "Same": 8402,
      "WATCH": 8403,
      "XX": 8404,
      "XMP": 8405,
      "ders": 8406,
      "eUnset": 8407,
      "jp": 8408,
      "must": 8409,
      "ral": 8410,
      "writer": 8411,
      "zilla": 8412,
      "ĠKind": 8413,
      "ĠUPDATE": 8414,
      "Ġassociated": 8415,
      "artifact": 8416,
      "inom": 8417,
      "getBlock": 8418,
      "getOnly": 8419,
      "isGet": 8420,
      "Ġnested": 8421,
      "Ġpatient": 8422,
      "Rect": 8423,
      "Ġeq": 8424,
      "ĠeUnset": 8425,
      "Stages": 8426,
      "amma": 8427,
      "StringWriter": 8428,
      "abilities": 8429,
      "ListValues": 8430,
      "unset": 8431,
      "Ġinstanti": 8432,
      "Ġmissing": 8433,
      "ĠPl": 8434,
      "Ġwri": 8435,
      "imlane": 8436,
      "Until": 8437,
      "Unnecessary": 8438,
      "Profil": 8439,
      "ĠgetDefault": 8440,
      "ĠDEC": 8441,
      "ĠStringBuffer": 8442,
      "setAll": 8443,
      "atial": 8444,
      "())));": 8445,
      "ĠĠĠĠĠĠĠĠĠĠĠĠĠĠĠĠĠĠĠĠĠĠĠĠĠĠ": 8446,
      "Ġrel": 8447,
      "Ġreferences": 8448,
      "ĠBLOCK": 8449,
      "ĠwithItems": 8450,
      "ĠwithLocalMillis": 8451,
      "Ġisn": 8452,
      "Developer": 8453,
      "Actual": 8454,
      "JobExecutionRequest": 8455,
      "ĠForm": 8456,
      "ctx": 8457,
      "ALDATA": 8458,
      "getSign": 8459,
      "anceled": 8460,
      "Apis": 8461,
      "CollectionConfiguration": 8462,
      "ParameterRanges": 8463,
      "rong": 8464,
      "DESTINATION": 8465,
      "RunRequest": 8466,
      "Theme": 8467,
      "ĠvalueUnitFlow": 8468,
      "NAMES": 8469,
      "Ġlookup": 8470,
      "Ġbelow": 8471,
      "tical": 8472,
      "atedEventAttributes": 8473,
      "SCALING": 8474,
      "Ġcomplete": 8475,
      "SSH": 8476,
      "AccessRequest": 8477,
      "nextValue": 8478,
      "DIREC": 8479,
      "ĠRectangle": 8480,
      "associations": 8481,
      "nodeName": 8482,
      "Usages": 8483,
      "CacheNodes": 8484,
      "Ġcontrol": 8485,
      "BatchDetect": 8486,
      "Ġactiv": 8487,
      "Subscriber": 8488,
      "PropertiesList": 8489,
      "singleton": 8490,
      "getBot": 8491,
      "tsSettings": 8492,
      "longValue": 8493,
      "MOD": 8494,
      "getTotal": 8495,
      "anguages": 8496,
      "fromJson": 8497,
      "ĠputInt": 8498,
      "REDENTI": 8499,
      "REDRAW": 8500,
      "ControlList": 8501,
      "Ġconnect": 8502,
      "RetryContext": 8503,
      "erialize": 8504,
      "ĠShape": 8505,
      "Whitelist": 8506,
      "COLUMN": 8507,
      "Selectors": 8508,
      "ĠLASTUPDATED": 8509,
      "brary": 8510,
      "currence": 8511,
      "SlotType": 8512,
      "Ġgoog": 8513,
      "tmpChunk": 8514,
      "reservedInstances": 8515,
      "ĠVertex": 8516,
      "Ġexecution": 8517,
      "RegexPattern": 8518,
      "ĠDisassociate": 8519,
      "ibull": 8520,
      "Propagation": 8521,
      "ĠVISIBLE": 8522,
      "SELECTION": 8523,
      "ĠDiagnostic": 8524,
      "getDeclaring": 8525,
      "CONNECT": 8526,
      "ĠARRAY": 8527,
      "TagSetList": 8528,
      "getTableName": 8529,
      "Switch": 8530,
      "ThirdPartyJob": 8531,
      "randparent": 8532,
      "Ġdeclarations": 8533,
      "ĠATTRIBUTE": 8534,
      "WaitTime": 8535,
      "Skin": 8536,
      "ĠImplementation": 8537,
      "inomial": 8538,
      "ProfilesRequest": 8539,
      "30": 8540,
      "Break": 8541,
      "Buf": 8542,
      "CR": 8543,
      "Med": 8544,
      "Merge": 8545,
      "Present": 8546,
      "RON": 8547,
      "cs": 8548,
      "eGet": 8549,
      "folder": 8550,
      "jected": 8551,
      "jaxb": 8552,
      "meta": 8553,
      "wt": 8554,
      "ĠUpload": 8555,
      "Ġenter": 8556,
      "tible": 8557,
      "enomin": 8558,
      "getTemplate": 8559,
      "Ġpriority": 8560,
      "Ġpersist": 8561,
      "INVO": 8562,
      "Reward": 8563,
      "ĠeGet": 8564,
      "RequestValidator": 8565,
      "itude": 8566,
      "Ġsimple": 8567,
      "Ġsample": 8568,
      "Ġfailure": 8569,
      "ĠSK": 8570,
      "Ġvia": 8571,
      "Ġ\"@": 8572,
      "threet": 8573,
      "loaded": 8574,
      "Ġinformation": 8575,
      "criter": 8576,
      "Ġmight": 8577,
      "Ġmigration": 8578,
      "ĠPattern": 8579,
      "ĠPORT": 8580,
      "erson": 8581,
      "Ġ///": 8582,
      "Chap": 8583,
      "TIM": 8584,
      "Ġstrict": 8585,
      "ĠDraw": 8586,
      "ackson": 8587,
      "ttle": 8588,
      "ĠĠĠĠĠĠĠĠĠĠĠĠĠĠĠĠĠĠĠĠĠĠĠĠ": 8589,
      "Ġregex": 8590,
      "ĠAD": 8591,
      "ĠTyped": 8592,
      "ĠTRAN": 8593,
      "Ġ100": 8594,
      "proposal": 8595,
      "StatusItem": 8596,
      "ĠtypeRegistry": 8597,
      "RITE": 8598,
      "MethodBinding": 8599,
      "opcode": 8600,
      "COPE": 8601,
      "getCause": 8602,
      "workspace": 8603,
      "calculate": 8604,
      "Struct": 8605,
      "Preferences": 8606,
      "Ġcompliance": 8607,
      "Ġupdated": 8608,
      "Ġunprocessed": 8609,
      "ConnectionStatus": 8610,
      "RecordsRequest": 8611,
      "ĠThere": 8612,
      "ILURE": 8613,
      "ĠsourceName": 8614,
      "writeInt": 8615,
      "getValueAsString": 8616,
      "izedType": 8617,
      "instanceFleet": 8618,
      "RouteFilter": 8619,
      "forName": 8620,
      "html": 8621,
      "ĠProvider": 8622,
      "Print": 8623,
      "Ġstrategy": 8624,
      "modifiable": 8625,
      "Retain": 8626,
      "DeliveryChannel": 8627,
      "ĠPROVISION": 8628,
      "ĠPRODUC": 8629,
      "HttpServletRequest": 8630,
      "ScheduledUpdateGroup": 8631,
      "ĠimageFile": 8632,
      "ĠbatchGet": 8633,
      "Ġencryption": 8634,
      "NEG": 8635,
      "ĠKMSKEY": 8636,
      "Download": 8637,
      "ServicesRequest": 8638,
      "CloudFormation": 8639,
      "getClientRequestToken": 8640,
      "ClustersRequest": 8641,
      "PointerException": 8642,
      "ĠbucketName": 8643,
      "Ġlater": 8644,
      "ĠProtobuf": 8645,
      "iSCSIVolumes": 8646,
      "REQUESTTOKEN": 8647,
      "PIID": 8648,
      "Propagations": 8649,
      "ĠNEW": 8650,
      "ApiKeyRequest": 8651,
      "EncodedValue": 8652,
      "ĠCLIENTREQUESTTOKEN": 8653,
      "UpgradeTarget": 8654,
      "FhirContext": 8655,
      "Ġwords": 8656,
      "UpperCase": 8657,
      "arguments": 8658,
      "managed": 8659,
      "Continuous": 8660,
      "getLanguageCode": 8661,
      "vbSub": 8662,
      "TRACE": 8663,
      "Ġvariables": 8664,
      "getRestApiId": 8665,
      "ĠUIComponent": 8666,
      "isAssignableFrom": 8667,
      "ĠRESTAPIID": 8668,
      "INCIPAL": 8669,
      "getAbsolutePath": 8670,
      "onetary": 8671,
      "threeten": 8672,
      "/*": 8673,
      "BS": 8674,
      "Cp": 8675,
      "Clip": 8676,
      "Even": 8677,
      "EQUAL": 8678,
      "GLOBAL": 8679,
      "Gwt": 8680,
      "Kms": 8681,
      "Mount": 8682,
      "PING": 8683,
      "Stor": 8684,
      "Safe": 8685,
      "cat": 8686,
      "fa": 8687,
      "fs": 8688,
      "filename": 8689,
      "normal": 8690,
      "ough": 8691,
      "sample": 8692,
      "ww": 8693,
      "};": 8694,
      "ĠResult": 8695,
      "Ġaws": 8696,
      "era": 8697,
      "ross": 8698,
      "routing": 8699,
      "getAll": 8700,
      "getEnable": 8701,
      "getWindow": 8702,
      "getHttp": 8703,
      "getOwner": 8704,
      "Ġ=>": 8705,
      "Ġpe": 8706,
      "Ġpower": 8707,
      "toList": 8708,
      "Repositories": 8709,
      "Remediation": 8710,
      "anity": 8711,
      "Ġcast": 8712,
      "Ġrb": 8713,
      "InSeconds": 8714,
      "ĠSN": 8715,
      "Ġbind": 8716,
      "Ġbottom": 8717,
      "ClientCertificate": 8718,
      "then": 8719,
      "uple": 8720,
      "Ġwait": 8721,
      "till": 8722,
      "Ġdest": 8723,
      "Ġdestructuring": 8724,
      "emo": 8725,
      "ĠgetContext": 8726,
      "ĠgetUser": 8727,
      "Ġexit": 8728,
      "setParent": 8729,
      "NodeInstance": 8730,
      "Ġhit": 8731,
      "Ġhex": 8732,
      "ĠMake": 8733,
      "ĠMalformed": 8734,
      "resources": 8735,
      "irehose": 8736,
      "SIG": 8737,
      "ĠLeg": 8738,
      "ĠLiteral": 8739,
      "Ġelem": 8740,
      "getSp": 8741,
      "returnType": 8742,
      "Streams": 8743,
      "OfRange": 8744,
      "Angle": 8745,
      "ĠVPC": 8746,
      "RESERVED": 8747,
      "codeBug": 8748,
      "Ġadding": 8749,
      "classLoader": 8750,
      "Ġ'.": 8751,
      "Ġchecked": 8752,
      "CONST": 8753,
      "Ġunknown": 8754,
      "OPTIONS": 8755,
      "swers": 8756,
      "backConfiguration": 8757,
      "Ġ24": 8758,
      "DBInstances": 8759,
      "Truncated": 8760,
      "ByteOrder": 8761,
      "ĠsuperClass": 8762,
      "Hashes": 8763,
      "Ġcurrently": 8764,
      "methodName": 8765,
      "Generated": 8766,
      "Capabilities": 8767,
      "spec": 8768,
      "Ġstrings": 8769,
      "IfMissing": 8770,
      "weak": 8771,
      "weeks": 8772,
      "Supplier": 8773,
      "labelingJob": 8774,
      "XMLNS": 8775,
      "argin": 8776,
      "ĠNOTE": 8777,
      "ĠSha": 8778,
      "OUTPUT": 8779,
      "onitor": 8780,
      "ĠENDTIME": 8781,
      "ApproveChaincodeDefinitionForMyOrg": 8782,
      "Ġmultiple": 8783,
      "Bitcoin": 8784,
      "provisioningArtifact": 8785,
      "ĠTimeZone": 8786,
      "liner": 8787,
      "operations": 8788,
      "****************": 8789,
      "ĠensureTyped": 8790,
      "HexString": 8791,
      "CustomerGateway": 8792,
      "VpcPeeringConnection": 8793,
      "BillingGroupRequest": 8794,
      "mainder": 8795,
      "dsDbInstance": 8796,
      "Compatibility": 8797,
      "Ġmeans": 8798,
      "ĠBitmapContainer": 8799,
      "ConfigurationRecorder": 8800,
      "ScheduleActionSettings": 8801,
      "chorPeers": 8802,
      "Dao": 8803,
      "useSourceInfoIfMissing": 8804,
      "isNotBlank": 8805,
      "asErasure": 8806,
      "Columns": 8807,
      "TIVITY": 8808,
      "criteria": 8809,
      "GwtIncompatible": 8810,
      "useSourceInfoIfMissingFrom": 8811,
      "14": 8812,
      "Cursor": 8813,
      "Canceled": 8814,
      "Deregister": 8815,
      "Full": 8816,
      "HO": 8817,
      "IABLE": 8818,
      "IMAGE": 8819,
      "SL": 8820,
      "VENDOR": 8821,
      "descriptor": 8822,
      "drop": 8823,
      "deregister": 8824,
      "eIsSet": 8825,
      "gateway": 8826,
      "ied": 8827,
      "mi": 8828,
      "mes": 8829,
      "maybe": 8830,
      "page": 8831,
      "rror": 8832,
      "tain": 8833,
      "});": 8834,
      "Ġes": 8835,
      "etic": 8836,
      "alf": 8837,
      "include": 8838,
      "initiate": 8839,
      "ater": 8840,
      "getFrom": 8841,
      "getConstructor": 8842,
      "isValue": 8843,
      "toJson": 8844,
      "lepos": 8845,
      "level": 8846,
      "Realtime": 8847,
      "ĠeIsSet": 8848,
      "Ġcert": 8849,
      "Insertion": 8850,
      "Requested": 8851,
      "utures": 8852,
      "Ġspeed": 8853,
      "ĠSee": 8854,
      "Ġ\"-": 8855,
      "Ġ\"\",": 8856,
      "Reserv": 8857,
      "TypeExpression": 8858,
      "imulation": 8859,
      "Unifier": 8860,
      "Ġdoc": 8861,
      "umul": 8862,
      "typed": 8863,
      "ToGet": 8864,
      "ToLive": 8865,
      "puter": 8866,
      "ĠDetermin": 8867,
      "extra": 8868,
      "izing": 8869,
      "begin": 8870,
      "ConfigResult": 8871,
      "ValueList": 8872,
      "TACH": 8873,
      "GroupSummary": 8874,
      "ĠATTRIBUTES": 8875,
      "Ġhints": 8876,
      "ĠTypes": 8877,
      "elements": 8878,
      "Ġ19": 8879,
      "ĠMulti": 8880,
      "respond": 8881,
      "SError": 8882,
      "motion": 8883,
      "DEVICE": 8884,
      "StreamProcessor": 8885,
      "OfRunContainers": 8886,
      "MethodRequest": 8887,
      "TypesCopy": 8888,
      "ISO": 8889,
      "Substitution": 8890,
      "Ġ'/": 8891,
      "++++": 8892,
      "ĠnodeTo": 8893,
      "SCC": 8894,
      "STATIC": 8895,
      "preter": 8896,
      "ACCOUNTID": 8897,
      "getNodes": 8898,
      "getNative": 8899,
      "ElementDefinition": 8900,
      "USH": 8901,
      "Ġundefined": 8902,
      "Accessed": 8903,
      "BlockStart": 8904,
      "ĠĠĠĠĠĠĠĠĠĠĠĠĠĠĠĠĠĠĠĠĠĠĠĠĠĠĠĠĠĠĠĠĠĠĠĠĠĠ": 8905,
      "StackSet": 8906,
      "StackResource": 8907,
      "Checker": 8908,
      "Checked": 8909,
      "ĠREVISION": 8910,
      "Contents": 8911,
      "BufferUtil": 8912,
      "Fraction": 8913,
      "removeChild": 8914,
      "ĠOther": 8915,
      "getBody": 8916,
      "DestinationConfiguration": 8917,
      "jobExecution": 8918,
      "ThingRequest": 8919,
      "ĠresourceName": 8920,
      "APSH": 8921,
      "ĠreadRaw": 8922,
      "SearchExpression": 8923,
      "PublicVirtualInterface": 8924,
      "EmailIdentity": 8925,
      "copyFrom": 8926,
      "Controllers": 8927,
[...]
